{
  "version": "1.0",
  "truncation": null,
  "padding": null,
  "added_tokens": [
    {
      "id": 0,
      "content": "<unk>",
      "single_word": false,
      "lstrip": false,
      "rstrip": false,
      "normalized": false,
      "special": true
    },
    {
      "id": 1,
      "content": "<pad>",
      "single_word": false,
      "lstrip": false,
      "rstrip": false,
      "normalized": false,
      "special": true
    },
    {
      "id": 2,
      "content": "<s>",
      "single_word": false,
      "lstrip": false,
      "rstrip": false,
      "normalized": false,
      "special": true
    },
    {
      "id": 3,
      "content": "</s>",
      "single_word": false,
      "lstrip": false,
      "rstrip": false,
      "normalized": false,
      "special": true
    },
    {
      "id": 4,
      "content": "<mask>",
      "single_word": false,
      "lstrip": false,
      "rstrip": false,
      "normalized": false,
      "special": true
    },
    {
      "id": 5,
      "content": "<DOC_START>",
      "single_word": false,
      "lstrip": false,
      "rstrip": false,
      "normalized": false,
      "special": true
    }
  ],
  "normalizer": null,
  "pre_tokenizer": {
    "type": "ByteLevel",
    "add_prefix_space": false,
    "trim_offsets": true,
    "use_regex": true
  },
  "post_processor": null,
  "decoder": {
    "type": "ByteLevel",
    "add_prefix_space": true,
    "trim_offsets": true,
    "use_regex": true
  },
  "model": {
    "type": "BPE",
    "dropout": null,
    "unk_token": "<unk>",
    "continuing_subword_prefix": "",
    "end_of_word_suffix": "",
    "fuse_unk": false,
    "byte_fallback": false,
    "ignore_merges": false,
    "vocab": {
      "<unk>": 0,
      "<pad>": 1,
      "<s>": 2,
      "</s>": 3,
      "<mask>": 4,
      "<DOC_START>": 5,
      "!": 6,
      "\"": 7,
      "#": 8,
      "%": 9,
      "&": 10,
      "'": 11,
      "(": 12,
      ")": 13,
      "*": 14,
      "+": 15,
      ",": 16,
      "-": 17,
      ".": 18,
      "/": 19,
      "0": 20,
      "1": 21,
      "2": 22,
      "3": 23,
      "4": 24,
      "5": 25,
      "6": 26,
      "7": 27,
      "8": 28,
      "9": 29,
      ":": 30,
      ";": 31,
      "<": 32,
      "=": 33,
      ">": 34,
      "?": 35,
      "@": 36,
      "A": 37,
      "C": 38,
      "D": 39,
      "H": 40,
      "I": 41,
      "M": 42,
      "N": 43,
      "O": 44,
      "R": 45,
      "S": 46,
      "T": 47,
      "U": 48,
      "W": 49,
      "X": 50,
      "Y": 51,
      "[": 52,
      "\\": 53,
      "]": 54,
      "^": 55,
      "_": 56,
      "`": 57,
      "a": 58,
      "b": 59,
      "c": 60,
      "d": 61,
      "e": 62,
      "f": 63,
      "g": 64,
      "h": 65,
      "i": 66,
      "j": 67,
      "k": 68,
      "l": 69,
      "m": 70,
      "n": 71,
      "o": 72,
      "p": 73,
      "q": 74,
      "r": 75,
      "s": 76,
      "t": 77,
      "u": 78,
      "v": 79,
      "w": 80,
      "x": 81,
      "y": 82,
      "z": 83,
      "{": 84,
      "|": 85,
      "}": 86,
      "~": 87,
      "£": 88,
      "­": 89,
      "¿": 90,
      "×": 91,
      "à": 92,
      "ã": 93,
      "æ": 94,
      "þ": 95,
      "ķ": 96,
      "œ": 97,
      "в": 98,
      "ं": 99,
      "ऽ": 100,
      "।": 101,
      "‘": 102,
      "’": 103,
      "件": 104,
      "夹": 105,
      "建": 106,
      "文": 107,
      "新": 108,
      "未": 109,
      "标": 110,
      "桌": 111,
      "档": 112,
      "面": 113,
      "题": 114,
      "（": 115,
      "）": 116,
      "ng": 117,
      "pa": 118,
      "ang": 119,
      "yi": 120,
      "ba": 121,
      "na": 122,
      "la": 123,
      "ya": 124,
      "gs": 125,
      "ha": 126,
      "//": 127,
      "dang": 128,
      "he": 129,
      "de": 130,
      "da": 131,
      "ms": 132,
      "par": 133,
      "ts": 134,
      "du": 135,
      "ho": 136,
      "hi": 137,
      "ni": 138,
      "ma": 139,
      "ye": 140,
      "bya": 141,
      "bs": 142,
      "yu": 143,
      "hes": 144,
      "ra": 145,
      "kyi": 146,
      "ta": 147,
      "te": 148,
      "ph": 149,
      "yang": 150,
      "yo": 151,
      "nyi": 152,
      "rna": 153,
      "do": 154,
      "yin": 155,
      "po": 156,
      "zhi": 157,
      "dag": 158,
      "hu": 159,
      "mi": 160,
      "nas": 161,
      "gyu": 162,
      "zhes": 163,
      "ri": 164,
      "ro": 165,
      "so": 166,
      "ca": 167,
      "me": 168,
      "gyi": 169,
      "nyid": 170,
      "to": 171,
      "tha": 172,
      "bar": 173,
      "ru": 174,
      "rg": 175,
      "gyur": 176,
      "sk": 177,
      "med": 178,
      "yed": 179,
      "rgya": 180,
      "ngs": 181,
      "las": 182,
      "bzhi": 183,
      "gi": 184,
      "su": 185,
      "lta": 186,
      "ci": 187,
      "di": 188,
      "dz": 189,
      "tu": 190,
      "se": 191,
      "cho": 192,
      "rnams": 193,
      "gz": 194,
      "phyi": 195,
      "nga": 196,
      "bu": 197,
      "ngo": 198,
      "kh": 199,
      "sems": 200,
      "han": 201,
      "pas": 202,
      "rj": 203,
      "rnam": 204,
      "bzhin": 205,
      "ste": 206,
      "byed": 207,
      "shes": 208,
      "go": 209,
      "lo": 210,
      "phyir": 211,
      "che": 212,
      "od": 213,
      "gang": 214,
      "ga": 215,
      "mo": 216,
      "es": 217,
      "yod": 218,
      "sogs": 219,
      "dan": 220,
      "rang": 221,
      "tho": 222,
      "am": 223,
      "cad": 224,
      "ldan": 225,
      "gsu": 226,
      "chu": 227,
      "ji": 228,
      "tan": 229,
      "chos": 230,
      "thams": 231,
      "bc": 232,
      "kyis": 233,
      "gnas": 234,
      "sp": 235,
      "no": 236,
      "kha": 237,
      "db": 238,
      "br": 239,
      "kho": 240,
      "ltar": 241,
      "can": 242,
      "ku": 243,
      "sto": 244,
      "chen": 245,
      "yung": 246,
      "rab": 247,
      "ka": 248,
      "don": 249,
      "lu": 250,
      "cig": 251,
      "nya": 252,
      "ge": 253,
      "bdag": 254,
      "dpa": 255,
      "gru": 256,
      "tsho": 257,
      "kyang": 258,
      "bo": 259,
      "byung": 260,
      "gyis": 261,
      "skye": 262,
      "shi": 263,
      "bz": 264,
      "gro": 265,
      "ad": 266,
      "byang": 267,
      "angs": 268,
      "gnyi": 269,
      "rje": 270,
      "cha": 271,
      "grub": 272,
      "gnyis": 273,
      "gzhan": 274,
      "re": 275,
      "om": 276,
      "mts": 277,
      "byas": 278,
      "das": 279,
      "nye": 280,
      "tsa": 281,
      "pha": 282,
      "bra": 283,
      "chub": 284,
      "rgyas": 285,
      "byo": 286,
      "sa": 287,
      "khor": 288,
      "thu": 289,
      "rgyu": 290,
      "gis": 291,
      "kun": 292,
      "lha": 293,
      "rdo": 294,
      "dge": 295,
      "ngon": 296,
      "bstan": 297,
      "dus": 298,
      "nang": 299,
      "gsum": 300,
      "bas": 301,
      "in": 302,
      "dbang": 303,
      "byor": 304,
      "bcom": 305,
      "rdz": 306,
      "had": 307,
      "ten": 308,
      "yon": 309,
      "mcho": 310,
      "yongs": 311,
      "tshi": 312,
      "rto": 313,
      "byin": 314,
      "ti": 315,
      "sangs": 316,
      "gzu": 317,
      "ug": 318,
      "gra": 319,
      "mtshan": 320,
      "gcig": 321,
      "dod": 322,
      "zhing": 323,
      "snga": 324,
      "rgyal": 325,
      "stong": 326,
      "le": 327,
      "slo": 328,
      "dzin": 329,
      "ces": 330,
      "bde": 331,
      "rol": 332,
      "zhe": 333,
      "tshe": 334,
      "mngon": 335,
      "spyod": 336,
      "ngos": 337,
      "mtho": 338,
      "phya": 339,
      "brj": 340,
      "gsungs": 341,
      "tshu": 342,
      "phyag": 343,
      "dra": 344,
      "dngos": 345,
      "lus": 346,
      "rten": 347,
      "cing": 348,
      "brgya": 349,
      "dam": 350,
      "tshogs": 351,
      "dug": 352,
      "gshe": 353,
      "brjod": 354,
      "sm": 355,
      "zhig": 356,
      "rdzo": 357,
      "mthong": 358,
      "sha": 359,
      "tshig": 360,
      "rigs": 361,
      "nyam": 362,
      "mdz": 363,
      "gshegs": 364,
      "shing": 365,
      "za": 366,
      "jig": 367,
      "gzugs": 368,
      "rig": 369,
      "bsk": 370,
      "lnga": 371,
      "rjes": 372,
      "rdzogs": 373,
      "bshad": 374,
      "phyin": 375,
      "yogs": 376,
      "skyes": 377,
      "lam": 378,
      "mtha": 379,
      "rta": 380,
      "dga": 381,
      "smra": 382,
      "mkha": 383,
      "snang": 384,
      "des": 385,
      "rts": 386,
      "skad": 387,
      "tshul": 388,
      "khya": 389,
      "nu": 390,
      "sku": 391,
      "rin": 392,
      "bca": 393,
      "phyogs": 394,
      "al": 395,
      "yid": 396,
      "mchog": 397,
      "bcu": 398,
      "ung": 399,
      "nying": 400,
      "jug": 401,
      "ol": 402,
      "thob": 403,
      "dun": 404,
      "er": 405,
      "slong": 406,
      "rung": 407,
      "snying": 408,
      "chags": 409,
      "ston": 410,
      "lag": 411,
      "hal": 412,
      "bras": 413,
      "dmi": 414,
      "kyil": 415,
      "dmigs": 416,
      "bsam": 417,
      "bcas": 418,
      "hugs": 419,
      "sngags": 420,
      "mar": 421,
      "rtsa": 422,
      "gal": 423,
      "yen": 424,
      "nam": 425,
      "sbyin": 426,
      "khams": 427,
      "dkyil": 428,
      "gu": 429,
      "yul": 430,
      "rul": 431,
      "rtog": 432,
      "dri": 433,
      "sh": 434,
      "rug": 435,
      "sbyor": 436,
      "rtogs": 437,
      "nges": 438,
      "bsgo": 439,
      "sgra": 440,
      "sna": 441,
      "chi": 442,
      "sn": 443,
      "yan": 444,
      "hag": 445,
      "tsam": 446,
      "sgo": 447,
      "mthu": 448,
      "lung": 449,
      "dp": 450,
      "dad": 451,
      "mdzad": 452,
      "on": 453,
      "byar": 454,
      "drug": 455,
      "dgo": 456,
      "mos": 457,
      "mchod": 458,
      "aa": 459,
      "gsol": 460,
      "dbu": 461,
      "bral": 462,
      "dog": 463,
      "min": 464,
      "rtag": 465,
      "phra": 466,
      "rk": 467,
      "gsal": 468,
      "*//": 469,
      "nyan": 470,
      "log": 471,
      "un": 472,
      "yis": 473,
      "ngan": 474,
      "sdug": 475,
      "sri": 476,
      "brgyad": 477,
      "smras": 478,
      "shin": 479,
      "reg": 480,
      "mongs": 481,
      "dud": 482,
      "the": 483,
      "spa": 484,
      "bsnga": 485,
      "nyes": 486,
      "bka": 487,
      "lags": 488,
      "man": 489,
      "khyad": 490,
      "sgrub": 491,
      "bla": 492,
      "tshad": 493,
      "dir": 494,
      "ting": 495,
      "sum": 496,
      "srid": 497,
      "dka": 498,
      "mnyam": 499,
      "nyon": 500,
      "mig": 501,
      "bskyed": 502,
      "thos": 503,
      "por": 504,
      "og": 505,
      "sngon": 506,
      "gts": 507,
      "gsang": 508,
      "dul": 509,
      "chad": 510,
      "snyam": 511,
      "rim": 512,
      "gto": 513,
      "khri": 514,
      "pos": 515,
      "rnal": 516,
      "mthun": 517,
      "thabs": 518,
      "sbyar": 519,
      "hang": 520,
      "tsal": 521,
      "nyen": 522,
      "gtan": 523,
      "bsngal": 524,
      "rgyud": 525,
      "pad": 526,
      "li": 527,
      "khyod": 528,
      "tshal": 529,
      "zla": 530,
      "slob": 531,
      "zad": 532,
      "rangs": 533,
      "thugs": 534,
      "legs": 535,
      "bsgom": 536,
      "bgyi": 537,
      "lhag": 538,
      "yas": 539,
      "phags": 540,
      "zhugs": 541,
      "blo": 542,
      "gzhi": 543,
      "mang": 544,
      "gri": 545,
      "mya": 546,
      "mdo": 547,
      "dbyi": 548,
      "brts": 549,
      "khro": 550,
      "dpal": 551,
      "nge": 552,
      "nyams": 553,
      "bk": 554,
      "mchi": 555,
      "ska": 556,
      "nus": 557,
      "gn": 558,
      "nad": 559,
      "mkh": 560,
      "bre": 561,
      "phan": 562,
      "ming": 563,
      "bsgrub": 564,
      "bsku": 565,
      "mtsho": 566,
      "grol": 567,
      "gnod": 568,
      "lang": 569,
      "lan": 570,
      "mkhyen": 571,
      "um": 572,
      "dza": 573,
      "bzang": 574,
      "tung": 575,
      "stsal": 576,
      "stobs": 577,
      "os": 578,
      "tags": 579,
      "dbye": 580,
      "ring": 581,
      "smos": 582,
      "bye": 583,
      "yug": 584,
      "sla": 585,
      "bdun": 586,
      "rog": 587,
      "brel": 588,
      "len": 589,
      "wa": 590,
      "gos": 591,
      "khyi": 592,
      "mu": 593,
      "zer": 594,
      "der": 595,
      "pho": 596,
      "thi": 597,
      "sor": 598,
      "rag": 599,
      "bts": 600,
      "bden": 601,
      "bi": 602,
      "rlung": 603,
      "bdud": 604,
      "khyab": 605,
      "rtsi": 606,
      "dran": 607,
      "tog": 608,
      "rkyen": 609,
      "grangs": 610,
      "jigs": 611,
      "mchis": 612,
      "shu": 613,
      "langs": 614,
      "phung": 615,
      "dkar": 616,
      "chung": 617,
      "tsha": 618,
      "song": 619,
      "spangs": 620,
      "ltung": 621,
      "snyo": 622,
      "nor": 623,
      "badz": 624,
      "zag": 625,
      "gzhag": 626,
      "yong": 627,
      "tshigs": 628,
      "skabs": 629,
      "va": 630,
      "snyoms": 631,
      "ngag": 632,
      "theg": 633,
      "mkhas": 634,
      "mthar": 635,
      "phu": 636,
      "nams": 637,
      "mtsha": 638,
      "dgra": 639,
      "khu": 640,
      "gzung": 641,
      "gzhu": 642,
      "gsung": 643,
      "tshor": 644,
      "mgo": 645,
      "bri": 646,
      "brten": 647,
      "dbus": 648,
      "sde": 649,
      "dpag": 650,
      "or": 651,
      "rtse": 652,
      "dbyings": 653,
      "sam": 654,
      "blta": 655,
      "spyi": 656,
      "lhan": 657,
      "ong": 658,
      "khyim": 659,
      "bsdus": 660,
      "yad": 661,
      "bzlas": 662,
      "bzhugs": 663,
      "gar": 664,
      "dpo": 665,
      "tang": 666,
      "brtson": 667,
      "bum": 668,
      "gda": 669,
      "lab": 670,
      "nag": 671,
      "shig": 672,
      "smin": 673,
      "sar": 674,
      "bur": 675,
      "aom": 676,
      "bsod": 677,
      "steng": 678,
      "ched": 679,
      "ras": 680,
      "srog": 681,
      "dpon": 682,
      "as": 683,
      "spro": 684,
      "bcad": 685,
      "rn": 686,
      "khrims": 687,
      "dis": 688,
      "ce": 689,
      "thar": 690,
      "spo": 691,
      "dmar": 692,
      "sman": 693,
      "gzi": 694,
      "phrul": 695,
      "tsh": 696,
      "sngar": 697,
      "rgyun": 698,
      "bsnyen": 699,
      "btsun": 700,
      "bud": 701,
      "phrag": 702,
      "bzung": 703,
      "badzra": 704,
      "hA": 705,
      "zin": 706,
      "zhu": 707,
      "bsa": 708,
      "dper": 709,
      "res": 710,
      "skyed": 711,
      "mas": 712,
      "reng": 713,
      "grib": 714,
      "bskur": 715,
      "brtan": 716,
      "zas": 717,
      "bzod": 718,
      "grags": 719,
      "dgongs": 720,
      "dgu": 721,
      "sprul": 722,
      "spyan": 723,
      "mtshams": 724,
      "zhal": 725,
      "rkang": 726,
      "khang": 727,
      "phye": 728,
      "mtshu": 729,
      "rnyed": 730,
      "gc": 731,
      "mtshungs": 732,
      "yig": 733,
      "labs": 734,
      "dgos": 735,
      "sdi": 736,
      "bzhag": 737,
      "bab": 738,
      "yangs": 739,
      "phe": 740,
      "thal": 741,
      "padma": 742,
      "khru": 743,
      "ongs": 744,
      "gong": 745,
      "blangs": 746,
      "zha": 747,
      "brag": 748,
      "shar": 749,
      "lto": 750,
      "bag": 751,
      "rdzas": 752,
      "ldog": 753,
      "longs": 754,
      "be": 755,
      "lhu": 756,
      "cu": 757,
      "spang": 758,
      "mon": 759,
      "chang": 760,
      "dha": 761,
      "khrag": 762,
      "khye": 763,
      "tshangs": 764,
      "gzho": 765,
      "rgyan": 766,
      "phyug": 767,
      "ser": 768,
      "skyon": 769,
      "brtags": 770,
      "spyad": 771,
      "sdig": 772,
      "bskor": 773,
      "myong": 774,
      "thogs": 775,
      "bslab": 776,
      "sgyu": 777,
      "jam": 778,
      "phreng": 779,
      "dung": 780,
      "pu": 781,
      "smon": 782,
      "sgro": 783,
      "bon": 784,
      "sho": 785,
      "gnyen": 786,
      "thag": 787,
      "phyed": 788,
      "char": 789,
      "ngu": 790,
      "sdo": 791,
      "gtso": 792,
      "tag": 793,
      "thog": 794,
      "gtogs": 795,
      "si": 796,
      "gcod": 797,
      "bor": 798,
      "mnga": 799,
      "thig": 800,
      "btang": 801,
      "mtshon": 802,
      "nan": 803,
      "dogs": 804,
      "spong": 805,
      "snyed": 806,
      "cag": 807,
      "au": 808,
      "pra": 809,
      "chud": 810,
      "khrul": 811,
      "bad": 812,
      "brgyan": 813,
      "mched": 814,
      "ram": 815,
      "bru": 816,
      "btags": 817,
      "sbyo": 818,
      "yur": 819,
      "grong": 820,
      "gser": 821,
      "thun": 822,
      "thub": 823,
      "sbyong": 824,
      "mdog": 825,
      "she": 826,
      "lugs": 827,
      "sgrib": 828,
      "drag": 829,
      "brang": 830,
      "ling": 831,
      "rtags": 832,
      "rdul": 833,
      "snod": 834,
      "hU": 835,
      "bsgoms": 836,
      "phel": 837,
      "ral": 838,
      "bska": 839,
      "klu": 840,
      "mdzes": 841,
      "bci": 842,
      "bsdu": 843,
      "bsgyur": 844,
      "bsams": 845,
      "nub": 846,
      "byams": 847,
      "dk": 848,
      "zhen": 849,
      "dre": 850,
      "bcings": 851,
      "ltos": 852,
      "ze": 853,
      "dor": 854,
      "khyer": 855,
      "grus": 856,
      "bku": 857,
      "jo": 858,
      "sarba": 859,
      "bram": 860,
      "phro": 861,
      "dpe": 862,
      "sdang": 863,
      "dong": 864,
      "bgyid": 865,
      "thug": 866,
      "slar": 867,
      "lca": 868,
      "bcos": 869,
      "sdom": 870,
      "tod": 871,
      "phun": 872,
      "zab": 873,
      "bzlog": 874,
      "skya": 875,
      "tab": 876,
      "srung": 877,
      "khong": 878,
      "ris": 879,
      "bskal": 880,
      "bstod": 881,
      "lce": 882,
      "mad": 883,
      "kar": 884,
      "cher": 885,
      "lcags": 886,
      "btab": 887,
      "srin": 888,
      "gdon": 889,
      "en": 890,
      "gtor": 891,
      "gog": 892,
      "gso": 893,
      "sbyang": 894,
      "gtong": 895,
      "slad": 896,
      "tam": 897,
      "*/": 898,
      "sreg": 899,
      "sgom": 900,
      "long": 901,
      "dbyangs": 902,
      "nyad": 903,
      "bza": 904,
      "sel": 905,
      "drang": 906,
      "byad": 907,
      "gtsug": 908,
      "yA": 909,
      "brtag": 910,
      "joms": 911,
      "bos": 912,
      "tshom": 913,
      "ches": 914,
      "khyed": 915,
      "tshang": 916,
      "dben": 917,
      "cung": 918,
      "Sh": 919,
      "gzigs": 920,
      "myur": 921,
      "bkod": 922,
      "yum": 923,
      "non": 924,
      "dres": 925,
      "khan": 926,
      "kye": 927,
      "tra": 928,
      "bus": 929,
      "dg": 930,
      "phat": 931,
      "rdzu": 932,
      "gzhon": 933,
      "khas": 934,
      "bsrung": 935,
      "gzhug": 936,
      "an": 937,
      "bh": 938,
      "spros": 939,
      "phul": 940,
      "dab": 941,
      "bha": 942,
      "cir": 943,
      "nyin": 944,
      "gre": 945,
      "mdun": 946,
      "nyer": 947,
      "seng": 948,
      "brlabs": 949,
      "gtsang": 950,
      "snyad": 951,
      "pi": 952,
      "brtsa": 953,
      "zhag": 954,
      "mkhan": 955,
      "ko": 956,
      "sv": 957,
      "bcug": 958,
      "gzhung": 959,
      "gros": 960,
      "ngas": 961,
      "ngang": 962,
      "zhabs": 963,
      "lj": 964,
      "tsi": 965,
      "mod": 966,
      "gag": 967,
      "brtsams": 968,
      "dgod": 969,
      "gzungs": 970,
      "glang": 971,
      "dar": 972,
      "dro": 973,
      "ub": 974,
      "rad": 975,
      "il": 976,
      "rus": 977,
      "blang": 978,
      "ai": 979,
      "phyis": 980,
      "bsal": 981,
      "thod": 982,
      "lho": 983,
      "rims": 984,
      "bam": 985,
      "gdab": 986,
      "mdzod": 987,
      "gam": 988,
      "hin": 989,
      "tshun": 990,
      "yos": 991,
      "yab": 992,
      "rlo": 993,
      "grogs": 994,
      "ki": 995,
      "sras": 996,
      "brtse": 997,
      "sprin": 998,
      "bskyod": 999,
      "mug": 1000,
      "thung": 1001,
      "oM": 1002,
      "mdor": 1003,
      "ur": 1004,
      "rdzob": 1005,
      "mgon": 1006,
      "Sha": 1007,
      "gti": 1008,
      "thad": 1009,
      "ngam": 1010,
      "dh": 1011,
      "dbul": 1012,
      "tul": 1013,
      "byi": 1014,
      "myal": 1015,
      "gegs": 1016,
      "tsan": 1017,
      "dmyal": 1018,
      "bkur": 1019,
      "red": 1020,
      "rmi": 1021,
      "bskul": 1022,
      "gzhal": 1023,
      "skal": 1024,
      "dril": 1025,
      "nar": 1026,
      "smad": 1027,
      "lhung": 1028,
      "gus": 1029,
      "snyan": 1030,
      ":/": 1031,
      "phyung": 1032,
      "gdan": 1033,
      "tA": 1034,
      "mong": 1035,
      "..": 1036,
      "gshin": 1037,
      "skyo": 1038,
      "grubs": 1039,
      "skra": 1040,
      "gling": 1041,
      "bsha": 1042,
      "ed": 1043,
      "wA": 1044,
      "gdu": 1045,
      "brnyan": 1046,
      "ar": 1047,
      "bsten": 1048,
      "dur": 1049,
      "khrod": 1050,
      "grel": 1051,
      "ne": 1052,
      "grang": 1053,
      "sdud": 1054,
      "stan": 1055,
      "dgag": 1056,
      "sred": 1057,
      "goms": 1058,
      "hUM": 1059,
      "lte": 1060,
      "phrin": 1061,
      "bgyis": 1062,
      "mun": 1063,
      "rmongs": 1064,
      "gtu": 1065,
      "bsgrubs": 1066,
      "zhus": 1067,
      "zho": 1068,
      "mam": 1069,
      "phur": 1070,
      "dren": 1071,
      "jog": 1072,
      "bris": 1073,
      "dbyer": 1074,
      "spos": 1075,
      "dbugs": 1076,
      "mnyan": 1077,
      "gdags": 1078,
      "rA": 1079,
      "rma": 1080,
      "brda": 1081,
      "bco": 1082,
      "byis": 1083,
      "tshur": 1084,
      "dris": 1085,
      "yud": 1086,
      "los": 1087,
      "bltas": 1088,
      "shog": 1089,
      "spu": 1090,
      "skyong": 1091,
      "gags": 1092,
      "nyal": 1093,
      "bod": 1094,
      "gnang": 1095,
      "dzi": 1096,
      "gdul": 1097,
      "gdung": 1098,
      "lhun": 1099,
      "shas": 1100,
      "skyabs": 1101,
      "debs": 1102,
      "Na": 1103,
      "ny": 1104,
      "kya": 1105,
      "skur": 1106,
      "thab": 1107,
      "bal": 1108,
      "th": 1109,
      "tshol": 1110,
      "rlabs": 1111,
      "phrad": 1112,
      "bgegs": 1113,
      "mgu": 1114,
      "bsnams": 1115,
      "bkra": 1116,
      "sgrol": 1117,
      "sbyangs": 1118,
      "cang": 1119,
      "tad": 1120,
      "hum": 1121,
      "gnon": 1122,
      "shis": 1123,
      "rungs": 1124,
      "drung": 1125,
      "rtsod": 1126,
      "stegs": 1127,
      "sta": 1128,
      "yun": 1129,
      "mg": 1130,
      "mal": 1131,
      "kan": 1132,
      "bsngags": 1133,
      "sb": 1134,
      "kA": 1135,
      "gdong": 1136,
      "bong": 1137,
      "dman": 1138,
      "bsngo": 1139,
      "bzhe": 1140,
      "khrugs": 1141,
      "mnan": 1142,
      "gnyer": 1143,
      "Ta": 1144,
      "brlab": 1145,
      "drangs": 1146,
      "mnyes": 1147,
      "yes": 1148,
      "zos": 1149,
      "rgyur": 1150,
      "ae": 1151,
      "sro": 1152,
      "@#": 1153,
      "bring": 1154,
      "sgras": 1155,
      "bsags": 1156,
      "btsal": 1157,
      "rtsol": 1158,
      "glu": 1159,
      "dkon": 1160,
      "yugs": 1161,
      "brtul": 1162,
      "gdug": 1163,
      "sra": 1164,
      "mda": 1165,
      "sgyur": 1166,
      "brgyu": 1167,
      "mA": 1168,
      "dum": 1169,
      "gtam": 1170,
      "zhags": 1171,
      "mdzub": 1172,
      "sbo": 1173,
      "dbyibs": 1174,
      "rga": 1175,
      "tshod": 1176,
      "bshes": 1177,
      "nA": 1178,
      "bzhir": 1179,
      "gle": 1180,
      "shA": 1181,
      "mthe": 1182,
      "3a": 1183,
      "logs": 1184,
      "zil": 1185,
      "dpung": 1186,
      "gsod": 1187,
      "2a": 1188,
      "4b": 1189,
      "2b": 1190,
      "6a": 1191,
      "3b": 1192,
      "kyu": 1193,
      "6b": 1194,
      "4a": 1195,
      "1b": 1196,
      "btung": 1197,
      "5b": 1198,
      "5a": 1199,
      "7a": 1200,
      "khrus": 1201,
      "rlom": 1202,
      "bkag": 1203,
      "skar": 1204,
      "bcing": 1205,
      "7b": 1206,
      "nags": 1207,
      "9a": 1208,
      "0a": 1209,
      "sbrul": 1210,
      "bzed": 1211,
      "9b": 1212,
      "8a": 1213,
      "8b": 1214,
      "mor": 1215,
      "id": 1216,
      "zung": 1217,
      "1a": 1218,
      "ing": 1219,
      "0b": 1220,
      "sti": 1221,
      "dhi": 1222,
      "yog": 1223,
      "tri": 1224,
      "sbom": 1225,
      "brkyang": 1226,
      "mtshar": 1227,
      "khyud": 1228,
      "dpyad": 1229,
      "tshong": 1230,
      "dbyung": 1231,
      "dgyes": 1232,
      "srong": 1233,
      "swA": 1234,
      "ke": 1235,
      "sbrang": 1236,
      "deng": 1237,
      "shugs": 1238,
      "klung": 1239,
      "rnga": 1240,
      "phrog": 1241,
      "brjid": 1242,
      "phal": 1243,
      "bsre": 1244,
      "gleng": 1245,
      "brgyud": 1246,
      "dzam": 1247,
      "rtsal": 1248,
      "gdams": 1249,
      "aum": 1250,
      "ding": 1251,
      "thang": 1252,
      "glo": 1253,
      "mgrin": 1254,
      "pan": 1255,
      "dpyod": 1256,
      "tshon": 1257,
      "nyung": 1258,
      "mthi": 1259,
      "bshags": 1260,
      "gdugs": 1261,
      "ljang": 1262,
      "TA": 1263,
      "ban": 1264,
      "khris": 1265,
      "gas": 1266,
      "gnyid": 1267,
      "dangs": 1268,
      "sngo": 1269,
      "btu": 1270,
      "pham": 1271,
      "yal": 1272,
      "rgod": 1273,
      "@#//": 1274,
      "dva": 1275,
      "skrag": 1276,
      "blugs": 1277,
      "gan": 1278,
      "yam": 1279,
      "ching": 1280,
      "ham": 1281,
      "chod": 1282,
      "ksha": 1283,
      "mkhris": 1284,
      "pags": 1285,
      "byug": 1286,
      "bA": 1287,
      "mjug": 1288,
      "kri": 1289,
      "rtsom": 1290,
      "blu": 1291,
      "dgug": 1292,
      "dbab": 1293,
      "gtad": 1294,
      "brdz": 1295,
      "bsad": 1296,
      "ldang": 1297,
      "rI": 1298,
      "dal": 1299,
      "sgron": 1300,
      "ster": 1301,
      "bul": 1302,
      "lon": 1303,
      "til": 1304,
      "lci": 1305,
      "bskol": 1306,
      "bcud": 1307,
      "yungs": 1308,
      "khar": 1309,
      "bdug": 1310,
      "gram": 1311,
      "radva": 1312,
      "rgyus": 1313,
      "rabs": 1314,
      "phang": 1315,
      "thim": 1316,
      "tshan": 1317,
      "tshim": 1318,
      "stag": 1319,
      "snu": 1320,
      "khrug": 1321,
      "gci": 1322,
      "khung": 1323,
      "gtum": 1324,
      "khrig": 1325,
      "rgyab": 1326,
      "khod": 1327,
      "gte": 1328,
      "bebs": 1329,
      "sts": 1330,
      "chus": 1331,
      "gcad": 1332,
      "chog": 1333,
      "tv": 1334,
      "gter": 1335,
      "dbyar": 1336,
      "ngul": 1337,
      "bro": 1338,
      "kro": 1339,
      "khe": 1340,
      "bgro": 1341,
      "bzhis": 1342,
      "dgon": 1343,
      "rgol": 1344,
      "phag": 1345,
      "brtsegs": 1346,
      "ah": 1347,
      "phaT": 1348,
      "dvags": 1349,
      "byon": 1350,
      "lde": 1351,
      "rjod": 1352,
      "drod": 1353,
      "zur": 1354,
      "lngas": 1355,
      "dpas": 1356,
      "chag": 1357,
      "tshes": 1358,
      "bsil": 1359,
      "gtang": 1360,
      "dma": 1361,
      "ril": 1362,
      "dngul": 1363,
      "skom": 1364,
      "bzhed": 1365,
      "rgal": 1366,
      "brdzun": 1367,
      "myos": 1368,
      "bkug": 1369,
      "kham": 1370,
      "zug": 1371,
      "sun": 1372,
      "ud": 1373,
      "kra": 1374,
      "spyir": 1375,
      "bgrod": 1376,
      "srang": 1377,
      "rtsub": 1378,
      "rgan": 1379,
      "dwa": 1380,
      "rak": 1381,
      "gshed": 1382,
      "lum": 1383,
      "dams": 1384,
      "swa": 1385,
      "bsregs": 1386,
      "babs": 1387,
      "snum": 1388,
      "nur": 1389,
      "bkang": 1390,
      "bsgri": 1391,
      "sA": 1392,
      "tshar": 1393,
      "sgrogs": 1394,
      "pA": 1395,
      "zhim": 1396,
      "gral": 1397,
      "koo": 1398,
      "car": 1399,
      "spobs": 1400,
      "11": 1401,
      "mngal": 1402,
      "sham": 1403,
      "bran": 1404,
      "bgrang": 1405,
      "ton": 1406,
      "rtsibs": 1407,
      "ning": 1408,
      "gyen": 1409,
      "stsol": 1410,
      "C_": 1411,
      "DO": 1412,
      "RT": 1413,
      "STA": 1414,
      "C_STA": 1415,
      "DOC_STA": 1416,
      "DOC_START": 1417,
      "shel": 1418,
      "Ni": 1419,
      "skyob": 1420,
      "rdza": 1421,
      "rbad": 1422,
      "bsdams": 1423,
      "10": 1424,
      "bsti": 1425,
      "rjed": 1426,
      "bhi": 1427,
      "mche": 1428,
      "sad": 1429,
      "khros": 1430,
      "bsreg": 1431,
      "yeng": 1432,
      "12": 1433,
      "////": 1434,
      "/'": 1435,
      "thA": 1436,
      "phab": 1437,
      "13": 1438,
      "god": 1439,
      "gur": 1440,
      "gnad": 1441,
      "akya": 1442,
      "blon": 1443,
      "bzhes": 1444,
      "shwa": 1445,
      "dags": 1446,
      "slu": 1447,
      "bzad": 1448,
      "khyil": 1449,
      "btsa": 1450,
      "dbyug": 1451,
      "bgos": 1452,
      "zlum": 1453,
      "gul": 1454,
      "16": 1455,
      "14": 1456,
      "15": 1457,
      "gyod": 1458,
      "17": 1459,
      "20": 1460,
      "stod": 1461,
      "18": 1462,
      "19": 1463,
      "Da": 1464,
      "rkun": 1465,
      "dzag": 1466,
      "phos": 1467,
      "bsgrags": 1468,
      "21": 1469,
      "nyis": 1470,
      "greng": 1471,
      "rat": 1472,
      "gza": 1473,
      "bkru": 1474,
      "lngar": 1475,
      "rags": 1476,
      "sbas": 1477,
      "lhags": 1478,
      "myu": 1479,
      "aut": 1480,
      "ltas": 1481,
      "mthus": 1482,
      "tor": 1483,
      "gdod": 1484,
      "thor": 1485,
      "khab": 1486,
      "chas": 1487,
      "klog": 1488,
      "snam": 1489,
      "sdong": 1490,
      "kr": 1491,
      "khur": 1492,
      "ugs": 1493,
      "klong": 1494,
      "skud": 1495,
      "phros": 1496,
      "22": 1497,
      "?]": 1498,
      "brnyes": 1499,
      "zan": 1500,
      "byugs": 1501,
      "bsgral": 1502,
      "gr": 1503,
      "lding": 1504,
      "brjed": 1505,
      "rmad": 1506,
      "mes": 1507,
      "skam": 1508,
      "tsu": 1509,
      "gha": 1510,
      "23": 1511,
      "sgor": 1512,
      "hri": 1513,
      "gir": 1514,
      "24": 1515,
      "smod": 1516,
      "lad": 1517,
      "gsad": 1518,
      "phran": 1519,
      "gung": 1520,
      "zlos": 1521,
      "mngar": 1522,
      "sva": 1523,
      "/)": 1524,
      "sgrog": 1525,
      "gsar": 1526,
      "el": 1527,
      "phug": 1528,
      "sge": 1529,
      "bsgribs": 1530,
      "brtsam": 1531,
      "mdangs": 1532,
      "rengs": 1533,
      "dze": 1534,
      "bgo": 1535,
      "shva": 1536,
      "mdza": 1537,
      "cod": 1538,
      "25": 1539,
      "kam": 1540,
      "blud": 1541,
      "yaH": 1542,
      "tsit": 1543,
      "dkris": 1544,
      "krung": 1545,
      "byings": 1546,
      "hr": 1547,
      "ske": 1548,
      "mchu": 1549,
      "igs": 1550,
      "bslang": 1551,
      "skyil": 1552,
      "dA": 1553,
      "yar": 1554,
      "at": 1555,
      "kog": 1556,
      "gyed": 1557,
      "sgeg": 1558,
      "sbu": 1559,
      "shos": 1560,
      "lkog": 1561,
      "bcur": 1562,
      "spel": 1563,
      "brum": 1564,
      "autpa": 1565,
      "26": 1566,
      "gzhol": 1567,
      "zlog": 1568,
      "ngal": 1569,
      "zangs": 1570,
      "tig": 1571,
      "mkhar": 1572,
      "sid": 1573,
      "tshugs": 1574,
      "bshang": 1575,
      "thungs": 1576,
      "sring": 1577,
      "ran": 1578,
      "phar": 1579,
      "lhas": 1580,
      "ljon": 1581,
      "dregs": 1582,
      "aam": 1583,
      "dzu": 1584,
      "bskrad": 1585,
      "gzir": 1586,
      "deg": 1587,
      "tsher": 1588,
      "chal": 1589,
      "sus": 1590,
      "mthing": 1591,
      "27": 1592,
      "chab": 1593,
      "phen": 1594,
      "zhon": 1595,
      "khyams": 1596,
      "bzhengs": 1597,
      "tse": 1598,
      "mthil": 1599,
      "tr": 1600,
      "phangs": 1601,
      "rgyang": 1602,
      "tsandan": 1603,
      "zang": 1604,
      "dzum": 1605,
      "bsrungs": 1606,
      "gnag": 1607,
      "saM": 1608,
      "bsres": 1609,
      "sma": 1610,
      "rngu": 1611,
      "sat": 1612,
      "lar": 1613,
      "phongs": 1614,
      "chan": 1615,
      "lhar": 1616,
      "gror": 1617,
      "phud": 1618,
      "zhum": 1619,
      "gA": 1620,
      "gol": 1621,
      "[?]": 1622,
      "gcan": 1623,
      "khrid": 1624,
      "zhib": 1625,
      "shed": 1626,
      "myang": 1627,
      "sen": 1628,
      "bshams": 1629,
      "skor": 1630,
      "gcin": 1631,
      "pri": 1632,
      "stu": 1633,
      "son": 1634,
      "28": 1635,
      "ros": 1636,
      "snyi": 1637,
      "yengs": 1638,
      "gzhir": 1639,
      "ao": 1640,
      "gya": 1641,
      "rno": 1642,
      "dhu": 1643,
      "thur": 1644,
      "phral": 1645,
      "shud": 1646,
      "pe": 1647,
      "rnon": 1648,
      "dpral": 1649,
      "Shi": 1650,
      "rku": 1651,
      "pus": 1652,
      "phog": 1653,
      "gron": 1654,
      "mdud": 1655,
      "rdzing": 1656,
      "gsog": 1657,
      "bzhad": 1658,
      "nI": 1659,
      "gsan": 1660,
      "29": 1661,
      "iT": 1662,
      "smig": 1663,
      "blos": 1664,
      "rlob": 1665,
      "30": 1666,
      "gud": 1667,
      "dmag": 1668,
      "gugs": 1669,
      "lA": 1670,
      "gug": 1671,
      "zing": 1672,
      "dzny": 1673,
      "bee": 1674,
      "glegs": 1675,
      "rtsva": 1676,
      "dzA": 1677,
      "...": 1678,
      "mdung": 1679,
      "bzla": 1680,
      "sil": 1681,
      "yor": 1682,
      "ngar": 1683,
      "tAM": 1684,
      "dbyig": 1685,
      "tshil": 1686,
      "bhu": 1687,
      "gzhom": 1688,
      "nyas": 1689,
      "phata": 1690,
      "srungs": 1691,
      "btsan": 1692,
      "btsugs": 1693,
      "lug": 1694,
      "glog": 1695,
      "dgrol": 1696,
      "gyon": 1697,
      "sos": 1698,
      "mgul": 1699,
      "kau": 1700,
      "rnying": 1701,
      "khyu": 1702,
      "dru": 1703,
      "gting": 1704,
      "jal": 1705,
      "shr": 1706,
      "shul": 1707,
      "sya": 1708,
      "bsngos": 1709,
      "st": 1710,
      "bzho": 1711,
      "bskus": 1712,
      "bting": 1713,
      "rtsis": 1714,
      "btud": 1715,
      "sran": 1716,
      "bzo": 1717,
      "thon": 1718,
      "rtsig": 1719,
      "31": 1720,
      "bton": 1721,
      "gcer": 1722,
      "yAM": 1723,
      "sba": 1724,
      "tstsha": 1725,
      "gla": 1726,
      "cog": 1727,
      "phas": 1728,
      "nom": 1729,
      "Shu": 1730,
      "ir": 1731,
      "rings": 1732,
      "cis": 1733,
      "sbal": 1734,
      "skyur": 1735,
      "bcang": 1736,
      "haM": 1737,
      "gzer": 1738,
      "brgal": 1739,
      "phrogs": 1740,
      "wang": 1741,
      "chom": 1742,
      "rugs": 1743,
      "bskang": 1744,
      "rib": 1745,
      "...(": 1746,
      "grag": 1747,
      "khongs": 1748,
      "snye": 1749,
      "btsas": 1750,
      "naM": 1751,
      "gdungs": 1752,
      "yaM": 1753,
      "bkrus": 1754,
      "sdigs": 1755,
      "gtugs": 1756,
      "dr": 1757,
      "gzar": 1758,
      "har": 1759,
      "dengs": 1760,
      "gnam": 1761,
      "brnyas": 1762,
      "byos": 1763,
      "ded": 1764,
      "karma": 1765,
      "dom": 1766,
      "bhya": 1767,
      "sdod": 1768,
      "dugs": 1769,
      "dgang": 1770,
      "rjer": 1771,
      "ut": 1772,
      "drin": 1773,
      "shan": 1774,
      "bzangs": 1775,
      "ShA": 1776,
      "shal": 1777,
      "ksh": 1778,
      "mri": 1779,
      "stabs": 1780,
      "mnar": 1781,
      "wi": 1782,
      "gangg": 1783,
      "brgyal": 1784,
      "hud": 1785,
      "khra": 1786,
      "bkres": 1787,
      "shri": 1788,
      "taH": 1789,
      "shun": 1790,
      "bsho": 1791,
      "tI": 1792,
      "rgyar": 1793,
      "btul": 1794,
      "phyang": 1795,
      "ngur": 1796,
      "bsu": 1797,
      "bzhon": 1798,
      "bslabs": 1799,
      "mah": 1800,
      "spras": 1801,
      "shAkya": 1802,
      "ljongs": 1803,
      "32": 1804,
      "lor": 1805,
      "mthon": 1806,
      "bslangs": 1807,
      "bshi": 1808,
      "skyi": 1809,
      "pur": 1810,
      "shiny": 1811,
      "33": 1812,
      "shtha": 1813,
      "tas": 1814,
      "mer": 1815,
      "tshva": 1816,
      "bsnu": 1817,
      "brdeg": 1818,
      "Tha": 1819,
      "gtsigs": 1820,
      "gson": 1821,
      "phyugs": 1822,
      "gding": 1823,
      "ju": 1824,
      "padmo": 1825,
      "mgron": 1826,
      "gad": 1827,
      "dral": 1828,
      "skul": 1829,
      "rnyog": 1830,
      "dpar": 1831,
      "sprad": 1832,
      "dhe": 1833,
      "aan": 1834,
      "gze": 1835,
      "bsnun": 1836,
      "shta": 1837,
      "gsho": 1838,
      "dI": 1839,
      "bstim": 1840,
      "dungs": 1841,
      "rel": 1842,
      "mdze": 1843,
      "bcol": 1844,
      "bsgreng": 1845,
      "san": 1846,
      "maH": 1847,
      "34": 1848,
      "taM": 1849,
      "kaH": 1850,
      "brlag": 1851,
      "gon": 1852,
      "bang": 1853,
      "gum": 1854,
      "brna": 1855,
      "rdzi": 1856,
      "mgyogs": 1857,
      "phor": 1858,
      "dgas": 1859,
      "bshig": 1860,
      "byol": 1861,
      "bskos": 1862,
      "brtsi": 1863,
      "sru": 1864,
      "brgyar": 1865,
      "mugs": 1866,
      "nyA": 1867,
      "mangs": 1868,
      "rgas": 1869,
      "sang": 1870,
      "ltag": 1871,
      "Ti": 1872,
      "lham": 1873,
      "rgyags": 1874,
      "nol": 1875,
      "klad": 1876,
      "sbubs": 1877,
      "....": 1878,
      "gces": 1879,
      "kI": 1880,
      "tso": 1881,
      "yel": 1882,
      "bying": 1883,
      "mir": 1884,
      "sme": 1885,
      "tta": 1886,
      "stang": 1887,
      "bsgos": 1888,
      "bros": 1889,
      "dmu": 1890,
      "bsnye": 1891,
      "zu": 1892,
      "spun": 1893,
      "lud": 1894,
      "nod": 1895,
      "atma": 1896,
      "ogs": 1897,
      "pr": 1898,
      "spyang": 1899,
      "raH": 1900,
      "35": 1901,
      "gta": 1902,
      "gdo": 1903,
      "brdungs": 1904,
      "goo": 1905,
      "gzhig": 1906,
      "shya": 1907,
      "smyon": 1908,
      "thul": 1909,
      "khengs": 1910,
      "sbe": 1911,
      "rngam": 1912,
      "kas": 1913,
      "Ur": 1914,
      "stangs": 1915,
      "chur": 1916,
      "rva": 1917,
      "pam": 1918,
      "bshos": 1919,
      "bhy": 1920,
      "lc": 1921,
      "Di": 1922,
      "bskyab": 1923,
      "hI": 1924,
      "dv": 1925,
      "rgyug": 1926,
      "dzah": 1927,
      "dpog": 1928,
      "brdung": 1929,
      "nos": 1930,
      "phebs": 1931,
      "phyar": 1932,
      "gdangs": 1933,
      "gsher": 1934,
      "kshi": 1935,
      "gnyug": 1936,
      "sbar": 1937,
      "degs": 1938,
      "pany": 1939,
      "dpes": 1940,
      "stug": 1941,
      "rtul": 1942,
      "rmugs": 1943,
      "bkram": 1944,
      "brangs": 1945,
      "glags": 1946,
      "brku": 1947,
      "ratna": 1948,
      "raM": 1949,
      "aar": 1950,
      "ja": 1951,
      "btsos": 1952,
      "gsos": 1953,
      "skyug": 1954,
      "bI": 1955,
      "tshabs": 1956,
      "mchil": 1957,
      "sprod": 1958,
      "rdzun": 1959,
      "blun": 1960,
      "ger": 1961,
      "tsham": 1962,
      "brla": 1963,
      "wam": 1964,
      "men": 1965,
      "we": 1966,
      "AH": 1967,
      "u0": 1968,
      "u0f": 1969,
      "brug": 1970,
      "bcus": 1971,
      "rum": 1972,
      "bsnol": 1973,
      "dkrugs": 1974,
      "///": 1975,
      "zungs": 1976,
      "mra": 1977,
      "zhog": 1978,
      "dbyen": 1979,
      "36": 1980,
      "lhor": 1981,
      "bcabs": 1982,
      "nongs": 1983,
      "tsA": 1984,
      "smre": 1985,
      "bcangs": 1986,
      "gzhang": 1987,
      "gh": 1988,
      "phod": 1989,
      "khi": 1990,
      "smyung": 1991,
      "rod": 1992,
      "srad": 1993,
      "gdengs": 1994,
      "bskum": 1995,
      "tya": 1996,
      "sbed": 1997,
      "mj": 1998,
      "bse": 1999,
      "ata": 2000,
      "spror": 2001,
      "sarb": 2002,
      "bsko": 2003,
      "gab": 2004,
      "zhan": 2005,
      "tshegs": 2006,
      "NA": 2007,
      "bsta": 2008,
      "mgur": 2009,
      "....(": 2010,
      "bsnyad": 2011,
      "snyigs": 2012,
      "rm": 2013,
      "tva": 2014,
      "dub": 2015,
      "ngoms": 2016,
      "gom": 2017,
      "mtshor": 2018,
      "bsang": 2019,
      "thigs": 2020,
      "shug": 2021,
      "khon": 2022,
      "rton": 2023,
      "thong": 2024,
      "37": 2025,
      "ain": 2026,
      "yol": 2027,
      "mjed": 2028,
      "gtod": 2029,
      "lhur": 2030,
      "bkrol": 2031,
      "rked": 2032,
      "gdol": 2033,
      "bung": 2034,
      "baM": 2035,
      "bskyang": 2036,
      "tshos": 2037,
      "dpyid": 2038,
      "khrel": 2039,
      "ther": 2040,
      "38": 2041,
      "bai": 2042,
      "leb": 2043,
      "smros": 2044,
      "ngor": 2045,
      "bid": 2046,
      "glen": 2047,
      "gau": 2048,
      "urya": 2049,
      "gsor": 2050,
      "gangs": 2051,
      "push": 2052,
      "zhar": 2053,
      "shad": 2054,
      "bder": 2055,
      "dwags": 2056,
      "mr": 2057,
      "gse": 2058,
      "twa": 2059,
      "mur": 2060,
      "bandha": 2061,
      "kaM": 2062,
      "smyo": 2063,
      "yak": 2064,
      "lpags": 2065,
      "mna": 2066,
      "btub": 2067,
      "shang": 2068,
      "sbra": 2069,
      "u0f8": 2070,
      "sol": 2071,
      "zhun": 2072,
      "amp": 2073,
      "brkus": 2074,
      "spre": 2075,
      "je": 2076,
      "phrod": 2077,
      "doms": 2078,
      "dgar": 2079,
      "dala": 2080,
      "ges": 2081,
      "lku": 2082,
      "dzva": 2083,
      "lja": 2084,
      "skem": 2085,
      "bte": 2086,
      "mthol": 2087,
      "sI": 2088,
      "buddha": 2089,
      "mdos": 2090,
      "autpala": 2091,
      "ljags": 2092,
      "gsob": 2093,
      "rlon": 2094,
      "hrI": 2095,
      "tram": 2096,
      "mchan": 2097,
      "bslad": 2098,
      "haH": 2099,
      "bltar": 2100,
      "dgun": 2101,
      "brtsal": 2102,
      "btus": 2103,
      "[*": 2104,
      "ldeng": 2105,
      "tsakra": 2106,
      "som": 2107,
      "sgrar": 2108,
      "spring": 2109,
      "khungs": 2110,
      "thum": 2111,
      "khebs": 2112,
      "gzan": 2113,
      "rtswa": 2114,
      "brtsigs": 2115,
      "41": 2116,
      "khril": 2117,
      "39": 2118,
      "mnos": 2119,
      "mkho": 2120,
      "bsangs": 2121,
      "tadya": 2122,
      "tvam": 2123,
      "tre": 2124,
      "40": 2125,
      "She": 2126,
      "rnag": 2127,
      "spyin": 2128,
      "bug": 2129,
      "sten": 2130,
      "kshu": 2131,
      "ag": 2132,
      "grul": 2133,
      "u0f85": 2134,
      "tshab": 2135,
      "laT": 2136,
      "sog": 2137,
      "sarbba": 2138,
      "bsnan": 2139,
      "dw": 2140,
      "con": 2141,
      "rer": 2142,
      "dmangs": 2143,
      "rtsir": 2144,
      "gyad": 2145,
      "nir": 2146,
      "brdar": 2147,
      "gshi": 2148,
      "spar": 2149,
      "bsdi": 2150,
      "skran": 2151,
      "lkugs": 2152,
      "chug": 2153,
      "shI": 2154,
      "gran": 2155,
      "bslus": 2156,
      "rwa": 2157,
      "sengge": 2158,
      "rngub": 2159,
      "dgur": 2160,
      "grog": 2161,
      "jim": 2162,
      "khyung": 2163,
      "gying": 2164,
      "dzaH": 2165,
      "rdal": 2166,
      "dzambu": 2167,
      "'//": 2168,
      "satva": 2169,
      "pU": 2170,
      "gzod": 2171,
      "chol": 2172,
      "gzhes": 2173,
      "aM": 2174,
      "srab": 2175,
      "tun": 2176,
      "zheng": 2177,
      "bslu": 2178,
      "42": 2179,
      "thebs": 2180,
      "laM": 2181,
      "rdor": 2182,
      "tham": 2183,
      "hoh": 2184,
      "klas": 2185,
      "gzengs": 2186,
      "gtsor": 2187,
      "bsdigs": 2188,
      "rba": 2189,
      "ShI": 2190,
      "skrod": 2191,
      "skyu": 2192,
      "gor": 2193,
      "nyag": 2194,
      "srul": 2195,
      "btso": 2196,
      "bstabs": 2197,
      "gdub": 2198,
      "bkab": 2199,
      "gshog": 2200,
      "run": 2201,
      "satv": 2202,
      "brta": 2203,
      "bteg": 2204,
      "bhe": 2205,
      "ita": 2206,
      "shigs": 2207,
      "gyel": 2208,
      "bdar": 2209,
      "drar": 2210,
      "mis": 2211,
      "rkyal": 2212,
      "btsir": 2213,
      "co": 2214,
      "kos": 2215,
      "snar": 2216,
      "NI": 2217,
      "thibs": 2218,
      "dzud": 2219,
      "dron": 2220,
      "nim": 2221,
      "slon": 2222,
      "dwangs": 2223,
      "hna": 2224,
      "kru": 2225,
      "bogs": 2226,
      "dngas": 2227,
      "bklag": 2228,
      "dharm": 2229,
      "bsrel": 2230,
      "khrungs": 2231,
      "rdol": 2232,
      "tshed": 2233,
      "mnyen": 2234,
      "phub": 2235,
      "waM": 2236,
      "tishtha": 2237,
      "dkrol": 2238,
      "chun": 2239,
      "harma": 2240,
      "aoo": 2241,
      "rkyang": 2242,
      "bklags": 2243,
      "rgun": 2244,
      "gtun": 2245,
      "tres": 2246,
      "gengs": 2247,
      "43": 2248,
      ";'": 2249,
      "bzhud": 2250,
      "@##": 2251,
      "naH": 2252,
      "bdog": 2253,
      "tshags": 2254,
      "/...(": 2255,
      "rgud": 2256,
      "pal": 2257,
      "liT": 2258,
      "sod": 2259,
      "khrol": 2260,
      "dho": 2261,
      "nyo": 2262,
      "arya": 2263,
      "snyems": 2264,
      "sle": 2265,
      "44": 2266,
      "skong": 2267,
      "zor": 2268,
      "rtsed": 2269,
      "stor": 2270,
      "shrI": 2271,
      "khob": 2272,
      "stam": 2273,
      "yus": 2274,
      "khol": 2275,
      "manta": 2276,
      "hrIH": 2277,
      "tt": 2278,
      "dzo": 2279,
      "kyus": 2280,
      "gzhog": 2281,
      "bangs": 2282,
      "skus": 2283,
      "khog": 2284,
      "kor": 2285,
      "skyer": 2286,
      "nged": 2287,
      "khron": 2288,
      "shra": 2289,
      "bcag": 2290,
      "smug": 2291,
      "nAM": 2292,
      "bsdad": 2293,
      "raksha": 2294,
      "khrigs": 2295,
      "glan": 2296,
      "shor": 2297,
      "stir": 2298,
      "aah": 2299,
      "blag": 2300,
      "mngag": 2301,
      "yem": 2302,
      "rngo": 2303,
      "bigs": 2304,
      "45": 2305,
      "dhv": 2306,
      "brkos": 2307,
      "lcug": 2308,
      "hoH": 2309,
      "Tu": 2310,
      "DA": 2311,
      "gnya": 2312,
      "'/": 2313,
      "grwa": 2314,
      "keng": 2315,
      "brog": 2316,
      "bregs": 2317,
      "gtams": 2318,
      "brnab": 2319,
      "rkan": 2320,
      "tshwa": 2321,
      "bsdam": 2322,
      "sgang": 2323,
      "hiH": 2324,
      "shv": 2325,
      "tuH": 2326,
      "tti": 2327,
      "bsham": 2328,
      "gyes": 2329,
      "bil": 2330,
      "by": 2331,
      "tshin": 2332,
      "stvam": 2333,
      "yee": 2334,
      "(]": 2335,
      "ghu": 2336,
      "ler": 2337,
      "sU": 2338,
      "kang": 2339,
      "skyugs": 2340,
      "[)": 2341,
      "gnyan": 2342,
      "khA": 2343,
      "gzo": 2344,
      "zar": 2345,
      "yag": 2346,
      "phrom": 2347,
      "moong": 2348,
      "dharma": 2349,
      "dzas": 2350,
      "nydza": 2351,
      "nyungs": 2352,
      "brlan": 2353,
      "siddhi": 2354,
      "ging": 2355,
      "thags": 2356,
      "gzas": 2357,
      "sbrel": 2358,
      "regs": 2359,
      "mI": 2360,
      "++": 2361,
      "sder": 2362,
      "btson": 2363,
      "sug": 2364,
      "maN": 2365,
      "snabs": 2366,
      "aita": 2367,
      "rU": 2368,
      "kum": 2369,
      "bhr": 2370,
      "khug": 2371,
      "skas": 2372,
      "dya": 2373,
      "sy": 2374,
      "shag": 2375,
      "many": 2376,
      "[)]": 2377,
      "chig": 2378,
      "sga": 2379,
      "moonggal": 2380,
      "dhya": 2381,
      "mtshe": 2382,
      "dush": 2383,
      "mid": 2384,
      "skyegs": 2385,
      "gsus": 2386,
      "rgyam": 2387,
      "bsnyems": 2388,
      "lhang": 2389,
      "spags": 2390,
      "[(]": 2391,
      "luT": 2392,
      "aakya": 2393,
      "grva": 2394,
      "khom": 2395,
      "daM": 2396,
      "gres": 2397,
      "lI": 2398,
      "nyil": 2399,
      "sing": 2400,
      "rtser": 2401,
      "mandala": 2402,
      "skyid": 2403,
      "bkye": 2404,
      "gzhogs": 2405,
      "bskams": 2406,
      "brtas": 2407,
      "skrangs": 2408,
      "chibs": 2409,
      "\\/": 2410,
      "stsogs": 2411,
      "gzhungs": 2412,
      "zong": 2413,
      "rtsad": 2414,
      "im": 2415,
      "skams": 2416,
      "46": 2417,
      "byA": 2418,
      "kur": 2419,
      "rde": 2420,
      "maM": 2421,
      "tsog": 2422,
      "mtshang": 2423,
      "gandha": 2424,
      "spungs": 2425,
      "para": 2426,
      "chings": 2427,
      "ngus": 2428,
      "dbal": 2429,
      "snyom": 2430,
      "dkyus": 2431,
      "At": 2432,
      "rdeg": 2433,
      "tiSh": 2434,
      "stengs": 2435,
      "lhod": 2436,
      "kla": 2437,
      "aee": 2438,
      "byam": 2439,
      "tsar": 2440,
      "smrig": 2441,
      "ldem": 2442,
      "ron": 2443,
      "chem": 2444,
      "dpang": 2445,
      "gsham": 2446,
      "dmod": 2447,
      "lim": 2448,
      "rtsib": 2449,
      "brgyas": 2450,
      "them": 2451,
      "tshams": 2452,
      "tsanda": 2453,
      "maud": 2454,
      "sht": 2455,
      "dgram": 2456,
      "spongs": 2457,
      "gdeng": 2458,
      "padmar": 2459,
      "us": 2460,
      "yer": 2461,
      "drags": 2462,
      "Nu": 2463,
      "NaM": 2464,
      "gca": 2465,
      "mnye": 2466,
      "stongs": 2467,
      "Ar": 2468,
      "tol": 2469,
      "bdugs": 2470,
      "yata": 2471,
      "lteng": 2472,
      "pang": 2473,
      "grihna": 2474,
      "bres": 2475,
      "bzhu": 2476,
      "rlan": 2477,
      "bskyal": 2478,
      "dvi": 2479,
      "phob": 2480,
      "phru": 2481,
      "rgu": 2482,
      "khram": 2483,
      "hom": 2484,
      "zo": 2485,
      "gyo": 2486,
      "skyel": 2487,
      "tim": 2488,
      "rting": 2489,
      "paM": 2490,
      "ldeb": 2491,
      "tar": 2492,
      "khrung": 2493,
      "bags": 2494,
      "aag": 2495,
      "rar": 2496,
      "wAM": 2497,
      "brid": 2498,
      "bsgrag": 2499,
      "breng": 2500,
      "lcang": 2501,
      "prA": 2502,
      "sim": 2503,
      "tshems": 2504,
      "badzre": 2505,
      "gyings": 2506,
      "sngom": 2507,
      "sr": 2508,
      "bems": 2509,
      "bin": 2510,
      "baH": 2511,
      "brtol": 2512,
      "shod": 2513,
      "dzem": 2514,
      "pre": 2515,
      "47": 2516,
      "pandi": 2517,
      "trag": 2518,
      "hya": 2519,
      "tug": 2520,
      "mthas": 2521,
      "Ya": 2522,
      "lis": 2523,
      "dat": 2524,
      "myed": 2525,
      "gnan": 2526,
      "ren": 2527,
      "snag": 2528,
      "aindra": 2529,
      "smyos": 2530,
      "bgrangs": 2531,
      "nyed": 2532,
      "anta": 2533,
      "dmus": 2534,
      "khyo": 2535,
      "iSh": 2536,
      "khaM": 2537,
      "brim": 2538,
      "pta": 2539,
      "brkam": 2540,
      "bhyo": 2541,
      "ldong": 2542,
      "gseb": 2543,
      "sin": 2544,
      "bsdoms": 2545,
      "rlangs": 2546,
      "skyod": 2547,
      "mee": 2548,
      "bsru": 2549,
      "gzud": 2550,
      "trA": 2551,
      "bstsal": 2552,
      "bskon": 2553,
      "btsags": 2554,
      "shuddha": 2555,
      "bog": 2556,
      "snyim": 2557,
      "brdegs": 2558,
      "gtar": 2559,
      "mjal": 2560,
      "lcam": 2561,
      "les": 2562,
      "bsgyings": 2563,
      "dhva": 2564,
      "dzra": 2565,
      "klan": 2566,
      "spyo": 2567,
      "autpal": 2568,
      "dzeg": 2569,
      "wan": 2570,
      "rdzus": 2571,
      "dngang": 2572,
      "zi": 2573,
      "btsud": 2574,
      "brus": 2575,
      "dbral": 2576,
      "skrang": 2577,
      "zlas": 2578,
      "dpyangs": 2579,
      "bsgrims": 2580,
      "hva": 2581,
      "spra": 2582,
      "ngogs": 2583,
      "dgab": 2584,
      "dring": 2585,
      "glud": 2586,
      "gtses": 2587,
      "ngangs": 2588,
      "soo": 2589,
      "loT": 2590,
      "bkol": 2591,
      "dgung": 2592,
      "shti": 2593,
      "ShaH": 2594,
      "dreg": 2595,
      "bsgre": 2596,
      "dkri": 2597,
      "kta": 2598,
      "rtug": 2599,
      "gshibs": 2600,
      "gzhong": 2601,
      "dkrug": 2602,
      "mkhur": 2603,
      "cham": 2604,
      "dhri": 2605,
      "kka": 2606,
      "khva": 2607,
      "dwi": 2608,
      "tur": 2609,
      "gtubs": 2610,
      "hur": 2611,
      "tsags": 2612,
      "bho": 2613,
      "sgog": 2614,
      "rngon": 2615,
      "dgye": 2616,
      "kal": 2617,
      "brah": 2618,
      "tsheg": 2619,
      "ngi": 2620,
      "rtsar": 2621,
      "cus": 2622,
      "aata": 2623,
      "bsdogs": 2624,
      "shangs": 2625,
      "bltams": 2626,
      "hee": 2627,
      "bkri": 2628,
      "lig": 2629,
      "shinytsa": 2630,
      "bhan": 2631,
      "lcag": 2632,
      "rya": 2633,
      "has": 2634,
      "mU": 2635,
      "Du": 2636,
      "khyam": 2637,
      "rong": 2638,
      "grad": 2639,
      "tiH": 2640,
      "hra": 2641,
      "khyog": 2642,
      "tsin": 2643,
      "rko": 2644,
      "Dal": 2645,
      "sbos": 2646,
      "badzri": 2647,
      "rlobs": 2648,
      "rmis": 2649,
      "spyon": 2650,
      "smyig": 2651,
      "puSh": 2652,
      "rti": 2653,
      "sdeb": 2654,
      "rbab": 2655,
      "satwa": 2656,
      "stAM": 2657,
      "klo": 2658,
      "shU": 2659,
      "bhri": 2660,
      "brnag": 2661,
      "48": 2662,
      "shru": 2663,
      "mgal": 2664,
      "brdabs": 2665,
      "NaH": 2666,
      "nytsa": 2667,
      "phrug": 2668,
      "drir": 2669,
      "phyur": 2670,
      "sth": 2671,
      "brdzi": 2672,
      "gcugs": 2673,
      "nem": 2674,
      "/....(": 2675,
      "mkhregs": 2676,
      "badzr": 2677,
      "bskrun": 2678,
      "satwA": 2679,
      "ih": 2680,
      "kyal": 2681,
      "daH": 2682,
      "brdas": 2683,
      "inya": 2684,
      "gzims": 2685,
      "zam": 2686,
      "gsil": 2687,
      "dgus": 2688,
      "shtsa": 2689,
      "sgre": 2690,
      "brgyus": 2691,
      "big": 2692,
      "vi": 2693,
      "karsha": 2694,
      "bstun": 2695,
      "kshe": 2696,
      "rid": 2697,
      "tshoms": 2698,
      "snyun": 2699,
      "u0f85haM": 2700,
      "tish": 2701,
      "mtshos": 2702,
      "shur": 2703,
      "gardza": 2704,
      "sgrom": 2705,
      "tsitta": 2706,
      "nri": 2707,
      "rlag": 2708,
      "spen": 2709,
      "bgrad": 2710,
      "shong": 2711,
      "bhra": 2712,
      "gshol": 2713,
      "bkas": 2714,
      "dbri": 2715,
      "mchong": 2716,
      "lcogs": 2717,
      "kti": 2718,
      "yoH": 2719,
      "skan": 2720,
      "dras": 2721,
      "bkum": 2722,
      "tsaN": 2723,
      "ydza": 2724,
      "sas": 2725,
      "byer": 2726,
      "bzha": 2727,
      "gzings": 2728,
      "saH": 2729,
      "skems": 2730,
      "lda": 2731,
      "srod": 2732,
      "byu": 2733,
      "Ne": 2734,
      "dzegs": 2735,
      "twA": 2736,
      "khrur": 2737,
      "sgoms": 2738,
      "breg": 2739,
      "sdes": 2740,
      "sg": 2741,
      "sgyi": 2742,
      "zhang": 2743,
      "nr": 2744,
      "byid": 2745,
      "yaksha": 2746,
      "lin": 2747,
      "paN": 2748,
      "ngad": 2749,
      "bgyir": 2750,
      "snad": 2751,
      "suH": 2752,
      "bkal": 2753,
      "gris": 2754,
      "spogs": 2755,
      "dros": 2756,
      ",]": 2757,
      "mh": 2758,
      "dzom": 2759,
      "yams": 2760,
      "[,]": 2761,
      "49": 2762,
      "cur": 2763,
      "dkor": 2764,
      "mtheb": 2765,
      "sgong": 2766,
      "bshu": 2767,
      "rmas": 2768,
      "gand": 2769,
      "skol": 2770,
      "brdzes": 2771,
      "mog": 2772,
      "chungs": 2773,
      "brdal": 2774,
      "yir": 2775,
      "dzha": 2776,
      "dbyu": 2777,
      "ty": 2778,
      "gras": 2779,
      "brtsis": 2780,
      "rme": 2781,
      "pUr": 2782,
      "stob": 2783,
      "btsod": 2784,
      "dred": 2785,
      "rlog": 2786,
      "bkan": 2787,
      "dgal": 2788,
      "hwa": 2789,
      "gseg": 2790,
      "shaM": 2791,
      "ldum": 2792,
      "shma": 2793,
      "sgrubs": 2794,
      "bat": 2795,
      "ait": 2796,
      "sau": 2797,
      "mchongs": 2798,
      "aat": 2799,
      "nee": 2800,
      "it": 2801,
      "thaH": 2802,
      "lasa": 2803,
      "brtsig": 2804,
      "basnga": 2805,
      "50": 2806,
      "sgyid": 2807,
      "bkar": 2808,
      "dzaM": 2809,
      "mgar": 2810,
      "yai": 2811,
      "rngams": 2812,
      "ldeg": 2813,
      "gcong": 2814,
      "mAM": 2815,
      "khyon": 2816,
      "glengs": 2817,
      "dzums": 2818,
      "traM": 2819,
      "bso": 2820,
      "myangs": 2821,
      "brab": 2822,
      "bkren": 2823,
      "khus": 2824,
      "srun": 2825,
      "brtsad": 2826,
      "dzan": 2827,
      "bsrings": 2828,
      "pun": 2829,
      "hai": 2830,
      "too": 2831,
      "bzhams": 2832,
      "ak": 2833,
      "nog": 2834,
      "DI": 2835,
      "khad": 2836,
      "dku": 2837,
      "tsom": 2838,
      "\\)": 2839,
      "pI": 2840,
      "srol": 2841,
      "khanda": 2842,
      "gasa": 2843,
      "dzab": 2844,
      "thas": 2845,
      "kre": 2846,
      "bsnyil": 2847,
      "spha": 2848,
      "khal": 2849,
      "sngas": 2850,
      "bsgul": 2851,
      "rdung": 2852,
      "bl": 2853,
      "mchid": 2854,
      "nyos": 2855,
      "eng": 2856,
      "meda": 2857,
      "bem": 2858,
      ":...(": 2859,
      "snas": 2860,
      "hrim": 2861,
      "slan": 2862,
      "snom": 2863,
      "rmig": 2864,
      "sre": 2865,
      "rdzab": 2866,
      "।।": 2867,
      "blug": 2868,
      "dpangs": 2869,
      "rnyi": 2870,
      "lji": 2871,
      "lhums": 2872,
      "gtub": 2873,
      "panytsa": 2874,
      "phyo": 2875,
      "byan": 2876,
      "pog": 2877,
      "sul": 2878,
      "dba": 2879,
      "ishta": 2880,
      "brje": 2881,
      "sgur": 2882,
      "shna": 2883,
      "amo": 2884,
      "kunda": 2885,
      "tshing": 2886,
      "mchin": 2887,
      "yAH": 2888,
      "mnod": 2889,
      "sgri": 2890,
      "nyar": 2891,
      "rtsen": 2892,
      "grA": 2893,
      "krol": 2894,
      "rdog": 2895,
      "khums": 2896,
      "krI": 2897,
      "gzon": 2898,
      "mum": 2899,
      "than": 2900,
      "bsro": 2901,
      "kong": 2902,
      "ytsa": 2903,
      "rgyangs": 2904,
      "rakta": 2905,
      "gatstsha": 2906,
      "bstims": 2907,
      "obs": 2908,
      "skyigs": 2909,
      "spho": 2910,
      "bgom": 2911,
      "shlo": 2912,
      "dzugs": 2913,
      "bsag": 2914,
      "aang": 2915,
      "dzI": 2916,
      "snal": 2917,
      "dhvam": 2918,
      "ShuH": 2919,
      "gats": 2920,
      "smel": 2921,
      "chogs": 2922,
      "rdu": 2923,
      "myags": 2924,
      "gshis": 2925,
      "Thi": 2926,
      "ldi": 2927,
      "phyas": 2928,
      "dongs": 2929,
      "tir": 2930,
      "gtsub": 2931,
      "brgan": 2932,
      "tshud": 2933,
      "pya": 2934,
      "dbrog": 2935,
      "mdzangs": 2936,
      "ganga": 2937,
      "NAM": 2938,
      "gdang": 2939,
      "manda": 2940,
      "sbrum": 2941,
      "snyegs": 2942,
      "srub": 2943,
      "brko": 2944,
      "brags": 2945,
      "wo": 2946,
      "bzhina": 2947,
      "mung": 2948,
      "khyogs": 2949,
      "btsu": 2950,
      "bsrabs": 2951,
      "spri": 2952,
      "lces": 2953,
      "yob": 2954,
      "choms": 2955,
      "bskam": 2956,
      "brub": 2957,
      "pradz": 2958,
      "gI": 2959,
      "bun": 2960,
      "mud": 2961,
      "rmed": 2962,
      "bshal": 2963,
      "brdab": 2964,
      "yoo": 2965,
      "thuH": 2966,
      "smyug": 2967,
      "zabs": 2968,
      "yanga": 2969,
      "mtshal": 2970,
      "smi": 2971,
      "Shin": 2972,
      "skyobs": 2973,
      "bsung": 2974,
      "khyor": 2975,
      "khyal": 2976,
      "gaH": 2977,
      "kim": 2978,
      "btsums": 2979,
      "hAM": 2980,
      "btsag": 2981,
      "ShaM": 2982,
      "dngangs": 2983,
      "51": 2984,
      "Shiny": 2985,
      "nyug": 2986,
      "dzdza": 2987,
      "phong": 2988,
      "YA": 2989,
      "pasa": 2990,
      "noo": 2991,
      "dbog": 2992,
      "dgrar": 2993,
      "mnam": 2994,
      "drongs": 2995,
      "aagni": 2996,
      "basngagasa": 2997,
      "harmA": 2998,
      "nal": 2999,
      "gebs": 3000,
      "brjes": 3001,
      "lhug": 3002,
      ":....(": 3003,
      "nva": 3004,
      "mgor": 3005,
      "aad": 3006,
      "bstab": 3007,
      "phyes": 3008,
      "huM": 3009,
      "gnu": 3010,
      "khugs": 3011,
      "bak": 3012,
      "DUr": 3013,
      "TI": 3014,
      "dham": 3015,
      "gho": 3016,
      "bsg": 3017,
      "brngu": 3018,
      "gzig": 3019,
      "buddh": 3020,
      "mngags": 3021,
      "dzer": 3022,
      "skyar": 3023,
      "mandal": 3024,
      "phol": 3025,
      "ika": 3026,
      "Te": 3027,
      "sko": 3028,
      "shir": 3029,
      "mdag": 3030,
      "gnubs": 3031,
      "AHhUM": 3032,
      "aH": 3033,
      "jud": 3034,
      "gsha": 3035,
      "laH": 3036,
      "mthang": 3037,
      "bsgrangs": 3038,
      "dgras": 3039,
      "aih": 3040,
      "phri": 3041,
      "phyags": 3042,
      "rtas": 3043,
      "sbangs": 3044,
      "nangs": 3045,
      "ltogs": 3046,
      "bsgril": 3047,
      "khrums": 3048,
      "bskyangs": 3049,
      "kva": 3050,
      "pat": 3051,
      "dnga": 3052,
      "randa": 3053,
      "mthug": 3054,
      "mdongs": 3055,
      "bsnyams": 3056,
      "tsun": 3057,
      "chongs": 3058,
      "TaM": 3059,
      "bsrang": 3060,
      "phugs": 3061,
      "dpyas": 3062,
      "dos": 3063,
      "shaH": 3064,
      "rda": 3065,
      "ranydza": 3066,
      "drA": 3067,
      "roo": 3068,
      "mdoms": 3069,
      "thums": 3070,
      "drub": 3071,
      "drud": 3072,
      ";/": 3073,
      "rjen": 3074,
      "bsngor": 3075,
      "badga": 3076,
      "bsnyungs": 3077,
      "gel": 3078,
      "rka": 3079,
      "tsandra": 3080,
      "tte": 3081,
      "tsang": 3082,
      "phrugs": 3083,
      "gaN": 3084,
      "samyak": 3085,
      "tsoo": 3086,
      "aN": 3087,
      "zhas": 3088,
      "phre": 3089,
      "hanya": 3090,
      "dhve": 3091,
      "brgyab": 3092,
      "slebs": 3093,
      "Wa": 3094,
      "dngags": 3095,
      "smas": 3096,
      "aatsa": 3097,
      "blor": 3098,
      "stha": 3099,
      "sbur": 3100,
      "ping": 3101,
      "skyen": 3102,
      "rdzong": 3103,
      "dUr": 3104,
      "bsnyengs": 3105,
      "mel": 3106,
      "tshog": 3107,
      "pushpa": 3108,
      "gcal": 3109,
      "phi": 3110,
      "chor": 3111,
      "sbags": 3112,
      "rngul": 3113,
      "spyos": 3114,
      "hrih": 3115,
      "sye": 3116,
      "spyil": 3117,
      "star": 3118,
      "paH": 3119,
      "hril": 3120,
      "bsrubs": 3121,
      "kyir": 3122,
      "shre": 3123,
      "rkub": 3124,
      "mcher": 3125,
      "yI": 3126,
      "rlig": 3127,
      "klag": 3128,
      "bAn": 3129,
      "gzhil": 3130,
      "sthi": 3131,
      "yina": 3132,
      "phyal": 3133,
      "mkhal": 3134,
      "lums": 3135,
      "ltad": 3136,
      "rasmee": 3137,
      "bdal": 3138,
      "skos": 3139,
      "aana": 3140,
      "dzings": 3141,
      "tsak": 3142,
      "smai": 3143,
      "bsdebs": 3144,
      "shAn": 3145,
      "hy": 3146,
      "tat": 3147,
      "smri": 3148,
      "sgos": 3149,
      "yAta": 3150,
      "TAM": 3151,
      "khwa": 3152,
      "sap": 3153,
      "sarbi": 3154,
      "sbram": 3155,
      "krita": 3156,
      "bsgrengs": 3157,
      "kita": 3158,
      "yU": 3159,
      "kul": 3160,
      "byes": 3161,
      "sprugs": 3162,
      "tye": 3163,
      "smrar": 3164,
      "sbran": 3165,
      "nab": 3166,
      "bsring": 3167,
      "yau": 3168,
      "hma": 3169,
      "nyul": 3170,
      "bsnyon": 3171,
      "mkhrang": 3172,
      "shuddho": 3173,
      "tum": 3174,
      "drim": 3175,
      "sleb": 3176,
      "shom": 3177,
      "any": 3178,
      "pak": 3179,
      "yAm": 3180,
      "duSh": 3181,
      "shuddhe": 3182,
      "yabs": 3183,
      "is": 3184,
      "ttha": 3185,
      "52": 3186,
      "kad": 3187,
      "drul": 3188,
      "phrang": 3189,
      "aur": 3190,
      "zes": 3191,
      "dbo": 3192,
      "shth": 3193,
      "mnabs": 3194,
      "No": 3195,
      "tutt": 3196,
      "bkrag": 3197,
      "rnyings": 3198,
      "bsnyel": 3199,
      "khyA": 3200,
      "atsa": 3201,
      "bstsags": 3202,
      "dbug": 3203,
      "dkur": 3204,
      "nasa": 3205,
      "daga": 3206,
      "hau": 3207,
      "smyan": 3208,
      "sgros": 3209,
      "khogs": 3210,
      "lgang": 3211,
      "[)]@#//": 3212,
      "dzr": 3213,
      "shy": 3214,
      "pradzny": 3215,
      "bstu": 3216,
      "bdas": 3217,
      "raka": 3218,
      "maHsarba": 3219,
      "rnags": 3220,
      "brims": 3221,
      "sdum": 3222,
      "ror": 3223,
      "gcags": 3224,
      "daN": 3225,
      "mai": 3226,
      "ber": 3227,
      "yuSh": 3228,
      "rgha": 3229,
      "tshub": 3230,
      "shat": 3231,
      "biSh": 3232,
      "parni": 3233,
      "bhin": 3234,
      "tak": 3235,
      "hany": 3236,
      "gtse": 3237,
      "thAM": 3238,
      "sgal": 3239,
      "ik": 3240,
      "brlang": 3241,
      "nta": 3242,
      "dpags": 3243,
      "ldongs": 3244,
      "ThA": 3245,
      "glad": 3246,
      "tstshi": 3247,
      "kvi": 3248,
      "trig": 3249,
      "maHsa": 3250,
      "dve": 3251,
      "nau": 3252,
      "byur": 3253,
      "sngor": 3254,
      "Sho": 3255,
      "gsong": 3256,
      "sapta": 3257,
      "lak": 3258,
      "rau": 3259,
      "rgad": 3260,
      "ged": 3261,
      "manydzu": 3262,
      "Ata": 3263,
      "tree": 3264,
      "bigh": 3265,
      "sdu": 3266,
      "grod": 3267,
      "gaM": 3268,
      "spyar": 3269,
      "sheg": 3270,
      "dgum": 3271,
      "pukka": 3272,
      "aud": 3273,
      "urba": 3274,
      "khre": 3275,
      "btsong": 3276,
      "bdo": 3277,
      "krishna": 3278,
      "kaN": 3279,
      "kanda": 3280,
      "bsrub": 3281,
      "lhab": 3282,
      "gsag": 3283,
      "rir": 3284,
      "rnna": 3285,
      "spor": 3286,
      "zhor": 3287,
      "glus": 3288,
      "brA": 3289,
      "gzhis": 3290,
      "sdebs": 3291,
      "phem": 3292,
      "kli": 3293,
      "jib": 3294,
      "muk": 3295,
      "ab": 3296,
      "hor": 3297,
      "sbrid": 3298,
      "rtsing": 3299,
      "bzar": 3300,
      "yuH": 3301,
      "dzv": 3302,
      "gzhigs": 3303,
      "sgril": 3304,
      "bskyon": 3305,
      "brtser": 3306,
      "shesa": 3307,
      "km": 3308,
      "bzhar": 3309,
      "pushpe": 3310,
      "brU": 3311,
      "trum": 3312,
      "drid": 3313,
      "grugs": 3314,
      "nut": 3315,
      "gtsags": 3316,
      "ranga": 3317,
      "lhub": 3318,
      "bcibs": 3319,
      "tAm": 3320,
      "bgros": 3321,
      "nda": 3322,
      "deb": 3323,
      "spyor": 3324,
      "ldon": 3325,
      "TaH": 3326,
      "jungs": 3327,
      "aarha": 3328,
      "rany": 3329,
      "zham": 3330,
      "aahmh": 3331,
      "shn": 3332,
      "skyin": 3333,
      "gdal": 3334,
      "siddha": 3335,
      "lya": 3336,
      "zlo": 3337,
      "zlar": 3338,
      "bltos": 3339,
      ":'": 3340,
      "dy": 3341,
      "kyo": 3342,
      "tru": 3343,
      "dzaHhUM": 3344,
      "bskangs": 3345,
      "him": 3346,
      "bim": 3347,
      "lbu": 3348,
      "tsI": 3349,
      "sprug": 3350,
      "sumbha": 3351,
      "btod": 3352,
      "hye": 3353,
      "shus": 3354,
      "mantra": 3355,
      "padmas": 3356,
      "slas": 3357,
      "tstshe": 3358,
      "sprang": 3359,
      "@#/": 3360,
      "shve": 3361,
      "nyang": 3362,
      "tro": 3363,
      "hn": 3364,
      "phred": 3365,
      "ana": 3366,
      "hiSh": 3367,
      "col": 3368,
      "kee": 3369,
      "twaM": 3370,
      "brgyang": 3371,
      "swaha": 3372,
      "shthi": 3373,
      "mde": 3374,
      "brtun": 3375,
      "lhog": 3376,
      "tis": 3377,
      "garbha": 3378,
      "bol": 3379,
      "khrud": 3380,
      "kAr": 3381,
      "skegs": 3382,
      "bldag": 3383,
      "ksho": 3384,
      "dznya": 3385,
      "num": 3386,
      "pag": 3387,
      ":/...(": 3388,
      "sbub": 3389,
      "bsgrib": 3390,
      "mand": 3391,
      "liM": 3392,
      "laTa": 3393,
      "duH": 3394,
      "aas": 3395,
      "klubs": 3396,
      "karm": 3397,
      "bskyur": 3398,
      "sgreng": 3399,
      "lobs": 3400,
      "then": 3401,
      "bstar": 3402,
      "aSh": 3403,
      "khrom": 3404,
      "spyugs": 3405,
      "bskyabs": 3406,
      "bsnyal": 3407,
      "brahma": 3408,
      "sphu": 3409,
      "tstshin": 3410,
      "gums": 3411,
      "waH": 3412,
      "nai": 3413,
      "spur": 3414,
      "kak": 3415,
      "sbrus": 3416,
      "drungs": 3417,
      "dig": 3418,
      "bcal": 3419,
      "gshags": 3420,
      "brul": 3421,
      "uta": 3422,
      "boo": 3423,
      "tshag": 3424,
      "bskyar": 3425,
      "glal": 3426,
      "bta": 3427,
      "rngan": 3428,
      "aanta": 3429,
      "rnyil": 3430,
      "sbyi": 3431,
      "bsgres": 3432,
      "brtsan": 3433,
      "moo": 3434,
      "khrir": 3435,
      "De": 3436,
      "dharmma": 3437,
      "snun": 3438,
      "bsgyel": 3439,
      "badzrA": 3440,
      "spug": 3441,
      "dgong": 3442,
      "drubs": 3443,
      "jag": 3444,
      "skyems": 3445,
      "kshm": 3446,
      "marga": 3447,
      "rtsang": 3448,
      "lhogs": 3449,
      "spyis": 3450,
      "pro": 3451,
      "was": 3452,
      "sher": 3453,
      "hak": 3454,
      "bugs": 3455,
      "dd": 3456,
      "lU": 3457,
      "blags": 3458,
      "tau": 3459,
      "zhir": 3460,
      "btse": 3461,
      "stA": 3462,
      "bham": 3463,
      "dbhy": 3464,
      "war": 3465,
      "hv": 3466,
      "nti": 3467,
      "dhy": 3468,
      "ghri": 3469,
      "pala": 3470,
      "mching": 3471,
      "bshus": 3472,
      "rdob": 3473,
      "tut": 3474,
      "bred": 3475,
      "&&": 3476,
      "aT": 3477,
      "khaN": 3478,
      "ndha": 3479,
      "svasti": 3480,
      "stri": 3481,
      "dyu": 3482,
      "mdzer": 3483,
      "rlugs": 3484,
      "kwi": 3485,
      "jing": 3486,
      "kwa": 3487,
      "nama": 3488,
      "dzasa": 3489,
      "dkrigs": 3490,
      "ghi": 3491,
      "skongs": 3492,
      "puk": 3493,
      "nger": 3494,
      "shtu": 3495,
      "danda": 3496,
      "nong": 3497,
      "shab": 3498,
      "dak": 3499,
      "dabs": 3500,
      "grur": 3501,
      "ch": 3502,
      "skyang": 3503,
      "sgren": 3504,
      "nul": 3505,
      "mkhrig": 3506,
      "brdzis": 3507,
      "punda": 3508,
      "dpogs": 3509,
      "dwe": 3510,
      "dzambha": 3511,
      "brnan": 3512,
      "gce": 3513,
      "rmo": 3514,
      "marda": 3515,
      "ppa": 3516,
      "tin": 3517,
      "sbyan": 3518,
      "matha": 3519,
      "gansa": 3520,
      "bba": 3521,
      "sbre": 3522,
      "tshA": 3523,
      "jus": 3524,
      "soms": 3525,
      "smA": 3526,
      "dushta": 3527,
      "53": 3528,
      "trug": 3529,
      "sngangs": 3530,
      "dama": 3531,
      "sbyod": 3532,
      "nv": 3533,
      "yats": 3534,
      "yAn": 3535,
      "kshya": 3536,
      "ltor": 3537,
      "samyaksam": 3538,
      "grum": 3539,
      "btsog": 3540,
      "antim": 3541,
      "pUrba": 3542,
      "uSh": 3543,
      "karka": 3544,
      "brtad": 3545,
      "kAH": 3546,
      "pum": 3547,
      "cor": 3548,
      "kalpa": 3549,
      "rte": 3550,
      "sprel": 3551,
      "theng": 3552,
      "brud": 3553,
      "iH": 3554,
      "(/": 3555,
      "dona": 3556,
      "gun": 3557,
      "aaka": 3558,
      "aun": 3559,
      "sne": 3560,
      "auta": 3561,
      "niH": 3562,
      "dzya": 3563,
      "khrab": 3564,
      "lba": 3565,
      "mkhyud": 3566,
      "gdos": 3567,
      "glon": 3568,
      "gnye": 3569,
      "niSh": 3570,
      "huT": 3571,
      "anti": 3572,
      "yanti": 3573,
      "dusht": 3574,
      "mgos": 3575,
      "rmya": 3576,
      "ShAM": 3577,
      "rUM": 3578,
      "dbub": 3579,
      "bkad": 3580,
      "aartha": 3581,
      "kin": 3582,
      "his": 3583,
      "zhin": 3584,
      "rdum": 3585,
      "hiM": 3586,
      "btsongs": 3587,
      "khy": 3588,
      "zags": 3589,
      "gtibs": 3590,
      "muny": 3591,
      "dU": 3592,
      "mat": 3593,
      "rtses": 3594,
      "skyogs": 3595,
      "mood": 3596,
      "dbyes": 3597,
      "ree": 3598,
      "tsakshu": 3599,
      "gdam": 3600,
      "rngog": 3601,
      "sal": 3602,
      "bub": 3603,
      "khyug": 3604,
      "chena": 3605,
      "krinya": 3606,
      "bshol": 3607,
      "ubs": 3608,
      "lur": 3609,
      "ap": 3610,
      "ऽऽ": 3611,
      "shwA": 3612,
      "pheg": 3613,
      "64b": 3614,
      "aka": 3615,
      "lubs": 3616,
      "skyongs": 3617,
      "wI": 3618,
      "glod": 3619,
      "41b": 3620,
      "shata": 3621,
      "16a": 3622,
      "rmos": 3623,
      "zhesa": 3624,
      "166a": 3625,
      "anya": 3626,
      "\\'": 3627,
      "brngos": 3628,
      "smee": 3629,
      "yanta": 3630,
      "aarka": 3631,
      "bidy": 3632,
      "ghe": 3633,
      "nna": 3634,
      "slang": 3635,
      "tma": 3636,
      "sur": 3637,
      "tsau": 3638,
      "buddhi": 3639,
      "mAn": 3640,
      "rmang": 3641,
      "bsn": 3642,
      "pul": 3643,
      "16b": 3644,
      "79b": 3645,
      "bcab": 3646,
      "108b": 3647,
      "skag": 3648,
      "nanta": 3649,
      "23b": 3650,
      "phyungs": 3651,
      "spom": 3652,
      "rmen": 3653,
      "chosa": 3654,
      "rdos": 3655,
      "shro": 3656,
      "24b": 3657,
      "166b": 3658,
      "pin": 3659,
      "tras": 3660,
      "140a": 3661,
      "yatstsha": 3662,
      "bcags": 3663,
      "yasta": 3664,
      "108a": 3665,
      "75b": 3666,
      "sgul": 3667,
      "mthur": 3668,
      "stambha": 3669,
      "ngom": 3670,
      "tiM": 3671,
      "119b": 3672,
      "29a": 3673,
      "41a": 3674,
      "tsum": 3675,
      "jil": 3676,
      "dpya": 3677,
      "106a": 3678,
      "135a": 3679,
      "139b": 3680,
      "40b": 3681,
      "66b": 3682,
      "sdangs": 3683,
      "106b": 3684,
      "15a": 3685,
      "26b": 3686,
      "110a": 3687,
      "17b": 3688,
      "28b": 3689,
      "shnu": 3690,
      "pid": 3691,
      "65a": 3692,
      "kaR": 3693,
      "156b": 3694,
      "19b": 3695,
      "43a": 3696,
      "82a": 3697,
      "yat": 3698,
      "dges": 3699,
      "119a": 3700,
      "nis": 3701,
      "114b": 3702,
      "bhanydza": 3703,
      "25b": 3704,
      "30a": 3705,
      "40a": 3706,
      "74b": 3707,
      "kyog": 3708,
      "17a": 3709,
      "46a": 3710,
      "46b": 3711,
      "72a": 3712,
      "93a": 3713,
      "oo": 3714,
      "sno": 3715,
      "sdus": 3716,
      "dana": 3717,
      "gcog": 3718,
      "beed": 3719,
      "42a": 3720,
      "79a": 3721,
      "78b": 3722,
      "80a": 3723,
      "tstsh": 3724,
      "bkral": 3725,
      "123b": 3726,
      "156a": 3727,
      "11b": 3728,
      "51a": 3729,
      "70a": 3730,
      "//'": 3731,
      "muH": 3732,
      "115b": 3733,
      "111a": 3734,
      "120a": 3735,
      "181b": 3736,
      "67a": 3737,
      "60a": 3738,
      "zol": 3739,
      "grongs": 3740,
      "rtseg": 3741,
      "trai": 3742,
      "115a": 3743,
      "126b": 3744,
      "131b": 3745,
      "76a": 3746,
      "76b": 3747,
      "116b": 3748,
      "122b": 3749,
      "33a": 3750,
      "48b": 3751,
      "64a": 3752,
      "69a": 3753,
      "77b": 3754,
      "81b": 3755,
      "sir": 3756,
      "193a": 3757,
      "196a": 3758,
      "24a": 3759,
      "36a": 3760,
      "55b": 3761,
      "58b": 3762,
      "ghan": 3763,
      "kle": 3764,
      "lga": 3765,
      "bsogs": 3766,
      "113a": 3767,
      "112b": 3768,
      "134b": 3769,
      "161b": 3770,
      "167a": 3771,
      "144b": 3772,
      "203b": 3773,
      "27a": 3774,
      "47a": 3775,
      "73a": 3776,
      "82b": 3777,
      "shwe": 3778,
      "darsha": 3779,
      "tve": 3780,
      "124a": 3781,
      "147b": 3782,
      "157a": 3783,
      "18a": 3784,
      "11a": 3785,
      "56a": 3786,
      "74a": 3787,
      "71b": 3788,
      "tsU": 3789,
      "byongs": 3790,
      "brod": 3791,
      "66a": 3792,
      "65b": 3793,
      "93b": 3794,
      "117a": 3795,
      "26a": 3796,
      "21a": 3797,
      "30b": 3798,
      "52a": 3799,
      "supa": 3800,
      "109b": 3801,
      "206b": 3802,
      "214b": 3803,
      "10a": 3804,
      "53a": 3805,
      "54a": 3806,
      "63b": 3807,
      "91b": 3808,
      "slongs": 3809,
      "snyod": 3810,
      "brur": 3811,
      "203a": 3812,
      "202b": 3813,
      "207b": 3814,
      "10b": 3815,
      "28a": 3816,
      "43b": 3817,
      "54b": 3818,
      "51b": 3819,
      "67b": 3820,
      "87a": 3821,
      "117b": 3822,
      "127a": 3823,
      "133b": 3824,
      "165b": 3825,
      "189b": 3826,
      "190a": 3827,
      "214a": 3828,
      "15b": 3829,
      "56b": 3830,
      "77a": 3831,
      "bskyil": 3832,
      "dzad": 3833,
      "grims": 3834,
      "118a": 3835,
      "134a": 3836,
      "139a": 3837,
      "208a": 3838,
      "195b": 3839,
      "dzul": 3840,
      "brngub": 3841,
      "86a": 3842,
      "120b": 3843,
      "148a": 3844,
      "176b": 3845,
      "178a": 3846,
      "207a": 3847,
      "27b": 3848,
      "83a": 3849,
      "92b": 3850,
      "98b": 3851,
      "ama": 3852,
      "ddha": 3853,
      "rub": 3854,
      "mthongs": 3855,
      "126a": 3856,
      "162b": 3857,
      "213b": 3858,
      "223a": 3859,
      "33b": 3860,
      "36b": 3861,
      "58a": 3862,
      "63a": 3863,
      "68b": 3864,
      "88a": 3865,
      "sAM": 3866,
      "116a": 3867,
      "113b": 3868,
      "182a": 3869,
      "btegs": 3870,
      "42b": 3871,
      "45b": 3872,
      "75a": 3873,
      "khral": 3874,
      "143a": 3875,
      "175b": 3876,
      "170b": 3877,
      "185a": 3878,
      "197b": 3879,
      "23a": 3880,
      "47b": 3881,
      "49b": 3882,
      "50b": 3883,
      "69b": 3884,
      "94a": 3885,
      "95a": 3886,
      "kU": 3887,
      "189a": 3888,
      "194b": 3889,
      "210a": 3890,
      "22b": 3891,
      "25a": 3892,
      "57a": 3893,
      "bgad": 3894,
      "iM": 3895,
      "brkyangs": 3896,
      "114a": 3897,
      "105b": 3898,
      "135b": 3899,
      "131a": 3900,
      "192b": 3901,
      "bhee": 3902,
      "bighn": 3903,
      "35a": 3904,
      "theb": 3905,
      "112a": 3906,
      "149a": 3907,
      "157b": 3908,
      "29b": 3909,
      "48a": 3910,
      "rtsab": 3911,
      "sbang": 3912,
      "118b": 3913,
      "129b": 3914,
      "137a": 3915,
      "137b": 3916,
      "130b": 3917,
      "160b": 3918,
      "145a": 3919,
      "155b": 3920,
      "175a": 3921,
      "180b": 3922,
      "44a": 3923,
      "59a": 3924,
      "its": 3925,
      "bcva": 3926,
      "shasa": 3927,
      "107a": 3928,
      "122a": 3929,
      "144a": 3930,
      "154b": 3931,
      "159a": 3932,
      "158a": 3933,
      "204a": 3934,
      "209b": 3935,
      "sgregs": 3936,
      "mungga": 3937,
      "14b": 3938,
      "14a": 3939,
      "22a": 3940,
      "31a": 3941,
      "57b": 3942,
      "50a": 3943,
      "59b": 3944,
      "62a": 3945,
      "72b": 3946,
      "78a": 3947,
      "81a": 3948,
      "tsya": 3949,
      "dbon": 3950,
      "tsag": 3951,
      "langa": 3952,
      "129a": 3953,
      "121a": 3954,
      "168b": 3955,
      "141a": 3956,
      "171a": 3957,
      "206a": 3958,
      "215a": 3959,
      "49a": 3960,
      "68a": 3961,
      "61a": 3962,
      "73b": 3963,
      "85b": 3964,
      "87b": 3965,
      "89a": 3966,
      "91a": 3967,
      "tyu": 3968,
      "zom": 3969,
      "sked": 3970,
      "tshob": 3971,
      "130a": 3972,
      "138b": 3973,
      "169b": 3974,
      "148b": 3975,
      "53b": 3976,
      "70b": 3977,
      "99a": 3978,
      "tshem": 3979,
      "128b": 3980,
      "155a": 3981,
      "173a": 3982,
      "185b": 3983,
      "180a": 3984,
      "aahh": 3985,
      "12a": 3986,
      "12b": 3987,
      "20b": 3988,
      "32a": 3989,
      "45a": 3990,
      "52b": 3991,
      "92a": 3992,
      "96a": 3993,
      "97a": 3994,
      "raN": 3995,
      "kem": 3996,
      "109a": 3997,
      "171b": 3998,
      "186b": 3999,
      "181a": 4000,
      "211b": 4001,
      "219a": 4002,
      "tstshinda": 4003,
      "19a": 4004,
      "44b": 4005,
      "55a": 4006,
      "hring": 4007,
      "123a": 4008,
      "140b": 4009,
      "18b": 4010,
      "ben": 4011,
      "110b": 4012,
      "162a": 4013,
      "172b": 4014,
      "208b": 4015,
      "187a": 4016,
      "195a": 4017,
      "197a": 4018,
      "219b": 4019,
      "210b": 4020,
      "84b": 4021,
      "84a": 4022,
      "rbud": 4023,
      "103a": 4024,
      "167b": 4025,
      "142a": 4026,
      "176a": 4027,
      "200a": 4028,
      "193b": 4029,
      "247a": 4030,
      "rngubs": 4031,
      "38a": 4032,
      "62b": 4033,
      "90a": 4034,
      "124b": 4035,
      "132b": 4036,
      "163b": 4037,
      "143b": 4038,
      "194a": 4039,
      "191b": 4040,
      "198b": 4041,
      "190b": 4042,
      "34a": 4043,
      "60b": 4044,
      "ner": 4045,
      "bhaksha": 4046,
      "101a": 4047,
      "125a": 4048,
      "132a": 4049,
      "136a": 4050,
      "147a": 4051,
      "151a": 4052,
      "205b": 4053,
      "183a": 4054,
      "217b": 4055,
      "btag": 4056,
      "mdas": 4057,
      "semsa": 4058,
      "gems": 4059,
      "tshir": 4060,
      "tshas": 4061,
      "102b": 4062,
      "121b": 4063,
      "127b": 4064,
      "138a": 4065,
      "141b": 4066,
      "153a": 4067,
      "199a": 4068,
      "191a": 4069,
      "212b": 4070,
      "222b": 4071,
      "223b": 4072,
      "86b": 4073,
      "95b": 4074,
      "111b": 4075,
      "104b": 4076,
      "152a": 4077,
      "152b": 4078,
      "174b": 4079,
      "204b": 4080,
      "199b": 4081,
      "213a": 4082,
      "232b": 4083,
      "32b": 4084,
      "39b": 4085,
      "danta": 4086,
      "bhru": 4087,
      "103b": 4088,
      "101b": 4089,
      "107b": 4090,
      "100a": 4091,
      "163a": 4092,
      "151b": 4093,
      "177a": 4094,
      "184b": 4095,
      "autta": 4096,
      "231a": 4097,
      "20a": 4098,
      "38b": 4099,
      "61b": 4100,
      "83b": 4101,
      "bsdud": 4102,
      "gandhe": 4103,
      "105a": 4104,
      "125b": 4105,
      "133a": 4106,
      "149b": 4107,
      "177b": 4108,
      "201b": 4109,
      "211a": 4110,
      "34b": 4111,
      "31b": 4112,
      "35b": 4113,
      "85a": 4114,
      "88b": 4115,
      "80b": 4116,
      "94b": 4117,
      "brash": 4118,
      "146a": 4119,
      "196b": 4120,
      "37a": 4121,
      "dita": 4122,
      "128a": 4123,
      "172a": 4124,
      "202a": 4125,
      "buddhe": 4126,
      "169a": 4127,
      "168a": 4128,
      "179b": 4129,
      "gzegs": 4130,
      "brngubs": 4131,
      "96b": 4132,
      "rnar": 4133,
      "spru": 4134,
      "160a": 4135,
      "161a": 4136,
      "159b": 4137,
      "173b": 4138,
      "205a": 4139,
      "182b": 4140,
      "192a": 4141,
      "104a": 4142,
      "164b": 4143,
      "150a": 4144,
      "183b": 4145,
      "212a": 4146,
      "89b": 4147,
      "90b": 4148,
      "phying": 4149,
      "dbhi": 4150,
      "100b": 4151,
      "136b": 4152,
      "165a": 4153,
      "145b": 4154,
      "154a": 4155,
      "179a": 4156,
      "186a": 4157,
      "218b": 4158,
      "97b": 4159,
      "dngar": 4160,
      "dib": 4161,
      "aama": 4162,
      "158b": 4163,
      "209a": 4164,
      "216a": 4165,
      "21b": 4166,
      "gisa": 4167,
      "164a": 4168,
      "146b": 4169,
      "188a": 4170,
      "sindhu": 4171,
      "71a": 4172,
      "hre": 4173,
      "smyu": 4174,
      "174a": 4175,
      "170a": 4176,
      "188b": 4177,
      "215b": 4178,
      "245b": 4179,
      "gnong": 4180,
      "hasti": 4181,
      "esh": 4182,
      "gzug": 4183,
      "150b": 4184,
      "245a": 4185,
      "ljid": 4186,
      "13a": 4187,
      "37b": 4188,
      "39a": 4189,
      "102a": 4190,
      "201a": 4191,
      "216b": 4192,
      "217a": 4193,
      "aagna": 4194,
      "99b": 4195,
      "itstsha": 4196,
      "zum": 4197,
      "nyaham": 4198,
      "178b": 4199,
      "98a": 4200,
      "gciga": 4201,
      "142b": 4202,
      "200b": 4203,
      "187b": 4204,
      "220a": 4205,
      "246b": 4206,
      "bsgrim": 4207,
      "huH": 4208,
      "shak": 4209,
      "shol": 4210,
      "184a": 4211,
      "198a": 4212,
      "tAH": 4213,
      "sngogs": 4214,
      "shags": 4215,
      "bir": 4216,
      "224b": 4217,
      "dzahmh": 4218,
      "bda": 4219,
      "ldag": 4220,
      "gtsubs": 4221,
      "153b": 4222,
      "222a": 4223,
      "227b": 4224,
      "233a": 4225,
      "240a": 4226,
      "13b": 4227,
      "basa": 4228,
      "gogs": 4229,
      "tsaH": 4230,
      "shrad": 4231,
      "239a": 4232,
      "shvi": 4233,
      "kyur": 4234,
      "mthor": 4235,
      "228b": 4236,
      "rgyob": 4237,
      "229b": 4238,
      "221a": 4239,
      "hAH": 4240,
      "staM": 4241,
      "218a": 4242,
      "bzhus": 4243,
      "sregs": 4244,
      "gup": 4245,
      "gzhib": 4246,
      "NiH": 4247,
      "224a": 4248,
      "232a": 4249,
      "smag": 4250,
      "bsnyegs": 4251,
      "iTa": 4252,
      "shita": 4253,
      "221b": 4254,
      "238b": 4255,
      "242a": 4256,
      "smar": 4257,
      "thii": 4258,
      "traH": 4259,
      "gdeg": 4260,
      "hat": 4261,
      "arka": 4262,
      "gtums": 4263,
      "phyam": 4264,
      "239b": 4265,
      "244b": 4266,
      "244a": 4267,
      "247b": 4268,
      "gzeb": 4269,
      "AM": 4270,
      "aarga": 4271,
      "rkyong": 4272,
      "246a": 4273,
      "jebs": 4274,
      "klus": 4275,
      "rnyis": 4276,
      "daka": 4277,
      "smr": 4278,
      "bel": 4279,
      "241b": 4280,
      "252a": 4281,
      "226b": 4282,
      "mnyams": 4283,
      "rdzdza": 4284,
      "ngesa": 4285,
      "bklubs": 4286,
      "228a": 4287,
      "twe": 4288,
      "bsdeb": 4289,
      "237a": 4290,
      "230a": 4291,
      "srubs": 4292,
      "rita": 4293,
      "226a": 4294,
      "234b": 4295,
      "231b": 4296,
      "238a": 4297,
      "225b": 4298,
      "dhoo": 4299,
      "kram": 4300,
      "rud": 4301,
      "225a": 4302,
      "235a": 4303,
      "237b": 4304,
      "253a": 4305,
      "jol": 4306,
      "shli": 4307,
      "pir": 4308,
      "229a": 4309,
      "220b": 4310,
      "242b": 4311,
      "240b": 4312,
      "ruH": 4313,
      "bsab": 4314,
      "dngo": 4315,
      "235b": 4316,
      "243b": 4317,
      "254b": 4318,
      "Nar": 4319,
      "togs": 4320,
      "sgyug": 4321,
      "241a": 4322,
      "shyo": 4323,
      "aargha": 4324,
      "gzhibs": 4325,
      "ljan": 4326,
      "233b": 4327,
      "230b": 4328,
      "kuN": 4329,
      "ThaH": 4330,
      "ljin": 4331,
      "karmma": 4332,
      "str": 4333,
      "brdzus": 4334,
      "254a": 4335,
      "255a": 4336,
      "dhut": 4337,
      "243a": 4338,
      "spas": 4339,
      "zhwa": 4340,
      "cas": 4341,
      "sbyongs": 4342,
      "236a": 4343,
      "252b": 4344,
      "253b": 4345,
      "256b": 4346,
      "?'": 4347,
      "bswe": 4348,
      "phyan": 4349,
      "munytsa": 4350,
      "236b": 4351,
      "loTa": 4352,
      "ig": 4353,
      "phyad": 4354,
      "bskums": 4355,
      "227a": 4356,
      "bsdos": 4357,
      "steg": 4358,
      "stems": 4359,
      "gazha": 4360,
      "250a": 4361,
      "dpyang": 4362,
      "257a": 4363,
      "234a": 4364,
      "260a": 4365,
      "byaM": 4366,
      "amra": 4367,
      "phabs": 4368,
      "aeng": 4369,
      "khegs": 4370,
      "tik": 4371,
      "255b": 4372,
      "bau": 4373,
      "tsarma": 4374,
      "dbung": 4375,
      "262a": 4376,
      "brgyugs": 4377,
      "257b": 4378,
      "259a": 4379,
      "nU": 4380,
      "bltam": 4381,
      "249a": 4382,
      "251a": 4383,
      "phatah": 4384,
      "kl": 4385,
      "ldir": 4386,
      "suM": 4387,
      "btsams": 4388,
      "248b": 4389,
      "263b": 4390,
      "blas": 4391,
      "ldas": 4392,
      "nish": 4393,
      "249b": 4394,
      "dzahh": 4395,
      "bsros": 4396,
      "shran": 4397,
      "bits": 4398,
      "248a": 4399,
      "dpyi": 4400,
      "251b": 4401,
      "259b": 4402,
      "258a": 4403,
      "trAM": 4404,
      "rash": 4405,
      "256a": 4406,
      "269a": 4407,
      "273a": 4408,
      "rika": 4409,
      "258b": 4410,
      "rmu": 4411,
      "rdze": 4412,
      "sarbA": 4413,
      "Am": 4414,
      "dwA": 4415,
      "lings": 4416,
      "250b": 4417,
      "260b": 4418,
      "272b": 4419,
      "myi": 4420,
      "wad": 4421,
      "shubs": 4422,
      "kroSh": 4423,
      "261b": 4424,
      "trI": 4425,
      "bagyi": 4426,
      "baksha": 4427,
      "263a": 4428,
      "rtsabs": 4429,
      "spr": 4430,
      "sab": 4431,
      "chir": 4432,
      "261a": 4433,
      "266b": 4434,
      "265b": 4435,
      "265a": 4436,
      "gna": 4437,
      "byab": 4438,
      "slobs": 4439,
      "272a": 4440,
      "krA": 4441,
      "sbreng": 4442,
      "hasma": 4443,
      "262b": 4444,
      "doo": 4445,
      "tsir": 4446,
      ";;": 4447,
      "blan": 4448,
      "264a": 4449,
      "cer": 4450,
      "ntu": 4451,
      "aashta": 4452,
      "mAH": 4453,
      "stis": 4454,
      "kulle": 4455,
      "yAs": 4456,
      "dkyel": 4457,
      "skyor": 4458,
      "urn": 4459,
      "mag": 4460,
      "rAH": 4461,
      "273b": 4462,
      "270a": 4463,
      "rbod": 4464,
      "tee": 4465,
      "gasnga": 4466,
      "grung": 4467,
      "dzir": 4468,
      "264b": 4469,
      "bhandha": 4470,
      "maha": 4471,
      "bing": 4472,
      "266a": 4473,
      "sni": 4474,
      "chums": 4475,
      "gee": 4476,
      "267a": 4477,
      "268a": 4478,
      "271a": 4479,
      "grim": 4480,
      "twi": 4481,
      "dzy": 4482,
      "panna": 4483,
      "268b": 4484,
      "dme": 4485,
      "iN": 4486,
      "tantra": 4487,
      "hoo": 4488,
      "bzos": 4489,
      "270b": 4490,
      "snron": 4491,
      "sarbe": 4492,
      "spus": 4493,
      "dzina": 4494,
      "grir": 4495,
      "bseng": 4496,
      "dhrik": 4497,
      "\\/)": 4498,
      "mina": 4499,
      "DaH": 4500,
      "bshan": 4501,
      "ante": 4502,
      "274a": 4503,
      "271b": 4504,
      "gazhana": 4505,
      "gzhar": 4506,
      "spris": 4507,
      "dpen": 4508,
      "277a": 4509,
      "takki": 4510,
      "Ang": 4511,
      "dapa": 4512,
      "dol": 4513,
      "gyus": 4514,
      "rtsangs": 4515,
      "dzika": 4516,
      "ksham": 4517,
      "302a": 4518,
      "mnal": 4519,
      "lundha": 4520,
      "rtar": 4521,
      "shoo": 4522,
      "275a": 4523,
      "rdugs": 4524,
      "tshubs": 4525,
      "shtri": 4526,
      "mtshog": 4527,
      "274b": 4528,
      "sram": 4529,
      "barna": 4530,
      "tud": 4531,
      "smyugs": 4532,
      "sgyus": 4533,
      "skyol": 4534,
      "stim": 4535,
      "thAH": 4536,
      "269b": 4537,
      "shvad": 4538,
      "thamsa": 4539,
      "noH": 4540,
      "kah": 4541,
      "275b": 4542,
      "ry": 4543,
      "sub": 4544,
      "shap": 4545,
      "yom": 4546,
      "skyas": 4547,
      "rtsam": 4548,
      "shwi": 4549,
      "267b": 4550,
      "drus": 4551,
      "284a": 4552,
      "ghram": 4553,
      "To": 4554,
      "glos": 4555,
      "pash": 4556,
      "sitsa": 4557,
      "gses": 4558,
      "zegs": 4559,
      "rnge": 4560,
      "khos": 4561,
      "rke": 4562,
      "gtol": 4563,
      "thib": 4564,
      "279b": 4565,
      "chems": 4566,
      "rAM": 4567,
      "276b": 4568,
      "286a": 4569,
      "gl": 4570,
      "kai": 4571,
      "smyin": 4572,
      "rtsigs": 4573,
      "bhinda": 4574,
      "arga": 4575,
      "hasta": 4576,
      "rams": 4577,
      "glur": 4578,
      "ahhum": 4579,
      "ghasma": 4580,
      "adi": 4581,
      "bU": 4582,
      "hla": 4583,
      "279a": 4584,
      "ondi": 4585,
      "282b": 4586,
      "skyibs": 4587,
      "285b": 4588,
      "rmel": 4589,
      "kt": 4590,
      "tyam": 4591,
      "277b": 4592,
      "ghra": 4593,
      "datta": 4594,
      "semas": 4595,
      "spud": 4596,
      "283b": 4597,
      "mme": 4598,
      "khres": 4599,
      "aaksha": 4600,
      "gazhi": 4601,
      "aak": 4602,
      "dhar": 4603,
      "barsha": 4604,
      "damsh": 4605,
      "280a": 4606,
      "bgres": 4607,
      "sros": 4608,
      "276a": 4609,
      "Shar": 4610,
      "280b": 4611,
      "tsug": 4612,
      "sngan": 4613,
      "rtab": 4614,
      "khyags": 4615,
      "tvi": 4616,
      "rur": 4617,
      "hrIHSh": 4618,
      "snoms": 4619,
      "danti": 4620,
      "brlags": 4621,
      "gril": 4622,
      "283a": 4623,
      "301b": 4624,
      "gnyags": 4625,
      "brgyangs": 4626,
      "gyin": 4627,
      "tasa": 4628,
      "rasmai": 4629,
      "287a": 4630,
      "294b": 4631,
      "290a": 4632,
      "nanda": 4633,
      "pushpam": 4634,
      "DU": 4635,
      "pt": 4636,
      "rom": 4637,
      "kyee": 4638,
      "tal": 4639,
      "sbun": 4640,
      "278a": 4641,
      "301a": 4642,
      "bsos": 4643,
      "281b": 4644,
      "293a": 4645,
      "btsem": 4646,
      "btogs": 4647,
      "grihn": 4648,
      "288b": 4649,
      "kshna": 4650,
      "bsgrigs": 4651,
      "bsnor": 4652,
      "rgham": 4653,
      "landha": 4654,
      "lcog": 4655,
      "bsgrod": 4656,
      "phA": 4657,
      "brti": 4658,
      "282a": 4659,
      "284b": 4660,
      "288a": 4661,
      "snyams": 4662,
      "bcar": 4663,
      "278b": 4664,
      "290b": 4665,
      "mdang": 4666,
      "banti": 4667,
      "286b": 4668,
      "281a": 4669,
      "।।।।": 4670,
      "rdub": 4671,
      "ltan": 4672,
      "dzri": 4673,
      "aina": 4674,
      "287b": 4675,
      "dvangs": 4676,
      "mnol": 4677,
      "ShISh": 4678,
      "thaM": 4679,
      "blong": 4680,
      "artha": 4681,
      "bande": 4682,
      "285a": 4683,
      "pushtim": 4684,
      "dzar": 4685,
      "289a": 4686,
      "306a": 4687,
      "changs": 4688,
      "snon": 4689,
      "thud": 4690,
      "dzoms": 4691,
      "hir": 4692,
      "glA": 4693,
      "296a": 4694,
      "dhan": 4695,
      "gyos": 4696,
      "wu": 4697,
      "kurba": 4698,
      "gcus": 4699,
      "aing": 4700,
      "yaHphaT": 4701,
      "/)...": 4702,
      "289b": 4703,
      "297b": 4704,
      "hIH": 4705,
      "hub": 4706,
      "291a": 4707,
      "304a": 4708,
      "300b": 4709,
      "aanda": 4710,
      "sgyed": 4711,
      "rit": 4712,
      "AT": 4713,
      "daR": 4714,
      "spod": 4715,
      "tsita": 4716,
      "sbron": 4717,
      "dzaHhU": 4718,
      "tU": 4719,
      "zhil": 4720,
      "sogas": 4721,
      "margad": 4722,
      "292b": 4723,
      "291b": 4724,
      "302b": 4725,
      "303b": 4726,
      "307a": 4727,
      "drwa": 4728,
      "sgrin": 4729,
      "kakko": 4730,
      "aNa": 4731,
      "aksha": 4732,
      "mau": 4733,
      "lcibs": 4734,
      "lkug": 4735,
      "laksha": 4736,
      "bcum": 4737,
      "grih": 4738,
      "aika": 4739,
      "306b": 4740,
      "kauN": 4741,
      "ghr": 4742,
      "sdar": 4743,
      "glong": 4744,
      "grams": 4745,
      "mthonga": 4746,
      "rtogsa": 4747,
      "sdoms": 4748,
      "dmas": 4749,
      "298a": 4750,
      "gseng": 4751,
      "apa": 4752,
      "bsnur": 4753,
      "ruM": 4754,
      "tsaM": 4755,
      "snyol": 4756,
      "292a": 4757,
      "294a": 4758,
      "btsam": 4759,
      "gsur": 4760,
      "chum": 4761,
      "297a": 4762,
      "bzhos": 4763,
      "dyo": 4764,
      "bsog": 4765,
      "rtol": 4766,
      "shrA": 4767,
      "IT": 4768,
      "ashtha": 4769,
      "nat": 4770,
      "zhigs": 4771,
      "chel": 4772,
      "spyong": 4773,
      "kash": 4774,
      "bash": 4775,
      "zhur": 4776,
      "298b": 4777,
      "310a": 4778,
      "dzahhum": 4779,
      "mjing": 4780,
      "rai": 4781,
      "thus": 4782,
      "shakya": 4783,
      "295a": 4784,
      "kama": 4785,
      "urb": 4786,
      "293b": 4787,
      "oda": 4788,
      "tyad": 4789,
      "skon": 4790,
      "gtos": 4791,
      "295b": 4792,
      "[:": 4793,
      "padme": 4794,
      "308a": 4795,
      "303a": 4796,
      "Ita": 4797,
      "tpa": 4798,
      "dznyo": 4799,
      "rkor": 4800,
      "313a": 4801,
      "sral": 4802,
      "karna": 4803,
      "briksha": 4804,
      "puM": 4805,
      "bsngosa": 4806,
      "gzags": 4807,
      "300a": 4808,
      "bshor": 4809,
      "brin": 4810,
      "raba": 4811,
      "304b": 4812,
      "sbras": 4813,
      "bsel": 4814,
      "skri": 4815,
      "khyims": 4816,
      "bit": 4817,
      "badzro": 4818,
      "307b": 4819,
      "309a": 4820,
      "312b": 4821,
      "mtsher": 4822,
      "heem": 4823,
      "296b": 4824,
      "hral": 4825,
      "kte": 4826,
      "rlab": 4827,
      "phrigs": 4828,
      "phyangs": 4829,
      "brgyags": 4830,
      "king": 4831,
      "rogs": 4832,
      "shring": 4833,
      "sarwa": 4834,
      "pheb": 4835,
      "gtug": 4836,
      "nAn": 4837,
      "299a": 4838,
      "hoHzhes": 4839,
      "haN": 4840,
      "bcer": 4841,
      "lid": 4842,
      "mchims": 4843,
      "hAr": 4844,
      "wAn": 4845,
      "bshigs": 4846,
      "dakshi": 4847,
      "saR": 4848,
      "thems": 4849,
      "aushma": 4850,
      "299b": 4851,
      "bhur": 4852,
      "snyen": 4853,
      "yama": 4854,
      "barta": 4855,
      "gzha": 4856,
      "nyaH": 4857,
      "309b": 4858,
      "stva": 4859,
      "yaN": 4860,
      "sped": 4861,
      "bhring": 4862,
      "rngus": 4863,
      "sgu": 4864,
      "pod": 4865,
      "dzasra": 4866,
      "sgrim": 4867,
      "bany": 4868,
      "koondi": 4869,
      "krod": 4870,
      "nyags": 4871,
      "wau": 4872,
      "310b": 4873,
      "atra": 4874,
      "myogs": 4875,
      "cal": 4876,
      "mukta": 4877,
      "305b": 4878,
      "syan": 4879,
      "srel": 4880,
      "dee": 4881,
      "barla": 4882,
      "buH": 4883,
      "brngas": 4884,
      "shau": 4885,
      "asma": 4886,
      "karni": 4887,
      "hriM": 4888,
      "dhuta": 4889,
      "311a": 4890,
      "Yu": 4891,
      "bsdo": 4892,
      "sangsa": 4893,
      "thing": 4894,
      "brir": 4895,
      "305a": 4896,
      "312a": 4897,
      "yaka": 4898,
      "badzrod": 4899,
      "dzh": 4900,
      "('": 4901,
      "trang": 4902,
      "yanya": 4903,
      "baR": 4904,
      "ShaT": 4905,
      "bantu": 4906,
      "314b": 4907,
      "Ad": 4908,
      "shni": 4909,
      "pram": 4910,
      "doda": 4911,
      "cam": 4912,
      "garbhe": 4913,
      "puN": 4914,
      "rmma": 4915,
      "ttam": 4916,
      "bac": 4917,
      "tus": 4918,
      "gsuma": 4919,
      "tIts": 4920,
      "#//": 4921,
      "krin": 4922,
      "karko": 4923,
      "adsa": 4924,
      "sana": 4925,
      "trin": 4926,
      "yana": 4927,
      "kantha": 4928,
      "315a": 4929,
      "UM": 4930,
      "ash": 4931,
      "kyin": 4932,
      "dabnga": 4933,
      "308b": 4934,
      "mahsarba": 4935,
      "lat": 4936,
      "riH": 4937,
      "lingga": 4938,
      "\\/...(": 4939,
      "natti": 4940,
      "gsing": 4941,
      "phyen": 4942,
      "britta": 4943,
      "gcung": 4944,
      "314a": 4945,
      "311b": 4946,
      "tastha": 4947,
      "dzug": 4948,
      "skyengs": 4949,
      "spal": 4950,
      "rnyogs": 4951,
      "bhyam": 4952,
      "gtur": 4953,
      "hwA": 4954,
      "den": 4955,
      "yoda": 4956,
      "zhung": 4957,
      "aus": 4958,
      "313b": 4959,
      "bsdom": 4960,
      "phrum": 4961,
      "tshogas": 4962,
      "sany": 4963,
      "aal": 4964,
      "sbud": 4965,
      "nakti": 4966,
      "suT": 4967,
      "bskyungs": 4968,
      "pheM": 4969,
      "dharme": 4970,
      "zed": 4971,
      "zhom": 4972,
      "316a": 4973,
      "dzahdzah": 4974,
      "kangka": 4975,
      "gyang": 4976,
      "mchus": 4977,
      "hing": 4978,
      "bcwa": 4979,
      "pud": 4980,
      "kiM": 4981,
      "gyong": 4982,
      "snol": 4983,
      "mut": 4984,
      "sboms": 4985,
      "glongs": 4986,
      "mUr": 4987,
      "nra": 4988,
      "rdungs": 4989,
      "bzas": 4990,
      "gsheg": 4991,
      "bkrabs": 4992,
      "agro": 4993,
      "ul": 4994,
      "phrol": 4995,
      "rdeb": 4996,
      "ldugs": 4997,
      "ps": 4998,
      "aargham": 4999,
      "kAn": 5000,
      "ahhu": 5001,
      "bldags": 5002,
      "phrig": 5003,
      "biH": 5004,
      "319b": 5005,
      "tIr": 5006,
      "rtha": 5007,
      "anga": 5008,
      "bsgru": 5009,
      "shtsi": 5010,
      "khum": 5011,
      "315b": 5012,
      "317b": 5013,
      "ghut": 5014,
      "aanydza": 5015,
      "ary": 5016,
      "rakshi": 5017,
      "pingka": 5018,
      "ina": 5019,
      "nak": 5020,
      "tata": 5021,
      "thoga": 5022,
      "khora": 5023,
      "nytsi": 5024,
      "hata": 5025,
      "bsnyung": 5026,
      "riga": 5027,
      "siddhya": 5028,
      "niry": 5029,
      "pru": 5030,
      "tsyee": 5031,
      "gzhus": 5032,
      "pim": 5033,
      "316b": 5034,
      "319a": 5035,
      "kwipa": 5036,
      "mantha": 5037,
      "muN": 5038,
      "shen": 5039,
      "tsee": 5040,
      "317a": 5041,
      "mbha": 5042,
      "//)": 5043,
      "thongs": 5044,
      "320a": 5045,
      "344a": 5046,
      "As": 5047,
      "jom": 5048,
      "nyu": 5049,
      "ndi": 5050,
      "bsus": 5051,
      "ShU": 5052,
      "jur": 5053,
      "matsha": 5054,
      "gyir": 5055,
      "dbhya": 5056,
      "nutta": 5057,
      "langka": 5058,
      "brinya": 5059,
      "snyil": 5060,
      "gsangs": 5061,
      "dems": 5062,
      "yuM": 5063,
      "lots": 5064,
      "bkong": 5065,
      "btsug": 5066,
      "338b": 5067,
      "baca": 5068,
      "brtod": 5069,
      "snubs": 5070,
      "318b": 5071,
      "woo": 5072,
      "kud": 5073,
      "phyer": 5074,
      "gcu": 5075,
      "320b": 5076,
      "dngosa": 5077,
      "dbha": 5078,
      "phrags": 5079,
      "tsittam": 5080,
      "rdebs": 5081,
      "hen": 5082,
      "yuk": 5083,
      "yoh": 5084,
      "gzhugs": 5085,
      "snrel": 5086,
      "roksh": 5087,
      "dzal": 5088,
      "tshiga": 5089,
      "shtam": 5090,
      "318a": 5091,
      "snyeg": 5092,
      "325a": 5093,
      "u0f7": 5094,
      "sIr": 5095,
      "tsinta": 5096,
      "gham": 5097,
      "uts": 5098,
      "bsrangs": 5099,
      "340b": 5100,
      "Nal": 5101,
      "mchad": 5102,
      "phad": 5103,
      "aapa": 5104,
      "bandhe": 5105,
      "336b": 5106,
      "343b": 5107,
      "shIr": 5108,
      "dau": 5109,
      "kana": 5110,
      "btsum": 5111,
      "mngas": 5112,
      "bcil": 5113,
      "323a": 5114,
      "321b": 5115,
      "u0f85k": 5116,
      "326b": 5117,
      "u0f85ham": 5118,
      "grvar": 5119,
      "WA": 5120,
      "dye": 5121,
      "ddh": 5122,
      "bsnam": 5123,
      "rgur": 5124,
      "sardza": 5125,
      "bishta": 5126,
      "332a": 5127,
      "331b": 5128,
      "339a": 5129,
      "bsnyun": 5130,
      "[]": 5131,
      "bzor": 5132,
      "mtshun": 5133,
      "dumb": 5134,
      "shvattha": 5135,
      "337a": 5136,
      "tana": 5137,
      "zhiga": 5138,
      "mit": 5139,
      "tshando": 5140,
      "Shan": 5141,
      "ashta": 5142,
      "mnog": 5143,
      "nanya": 5144,
      "tstshu": 5145,
      "mandi": 5146,
      "liTa": 5147,
      "aim": 5148,
      "shasra": 5149,
      "324a": 5150,
      "gshong": 5151,
      "harmAH": 5152,
      "bunya": 5153,
      "aakshi": 5154,
      "krid": 5155,
      "327a": 5156,
      "327b": 5157,
      "aantastha": 5158,
      "344b": 5159,
      "lva": 5160,
      "nd": 5161,
      "zlogs": 5162,
      "pau": 5163,
      "parna": 5164,
      "phyong": 5165,
      "rubs": 5166,
      "tsartsi": 5167,
      "bskyud": 5168,
      "konyaham": 5169,
      "325b": 5170,
      "&&&": 5171,
      "bardha": 5172,
      "340a": 5173,
      "341a": 5174,
      "numa": 5175,
      "322a": 5176,
      "326a": 5177,
      "sbrengs": 5178,
      "gU": 5179,
      "shaka": 5180,
      "ais": 5181,
      "DaM": 5182,
      "328a": 5183,
      "321a": 5184,
      "339b": 5185,
      "lcer": 5186,
      "unya": 5187,
      "bsdongs": 5188,
      "bskyos": 5189,
      "aagn": 5190,
      "bsdur": 5191,
      "aanti": 5192,
      "342a": 5193,
      "dharmm": 5194,
      "taN": 5195,
      "phuH": 5196,
      "brun": 5197,
      "323b": 5198,
      "335a": 5199,
      "drab": 5200,
      "gye": 5201,
      "tap": 5202,
      "bsdum": 5203,
      "glor": 5204,
      "324b": 5205,
      "331a": 5206,
      "kshum": 5207,
      "+-": 5208,
      "Do": 5209,
      "dzhi": 5210,
      "yush": 5211,
      "tong": 5212,
      "bardzu": 5213,
      "shid": 5214,
      "kuny": 5215,
      "shwat": 5216,
      "334b": 5217,
      "334a": 5218,
      "kon": 5219,
      "rni": 5220,
      "mara": 5221,
      "shakti": 5222,
      "padm": 5223,
      "biM": 5224,
      "322b": 5225,
      "338a": 5226,
      "rdib": 5227,
      "hik": 5228,
      "lits": 5229,
      "khud": 5230,
      "dhishthi": 5231,
      "kruny": 5232,
      "sbyir": 5233,
      "bsnyags": 5234,
      "tshims": 5235,
      "rngur": 5236,
      "kshma": 5237,
      "sngos": 5238,
      "yisa": 5239,
      "mash": 5240,
      "gsud": 5241,
      "liH": 5242,
      "cen": 5243,
      "kIr": 5244,
      "brdol": 5245,
      "lhad": 5246,
      "shub": 5247,
      "dhr": 5248,
      "sAr": 5249,
      "329b": 5250,
      "336a": 5251,
      "rngom": 5252,
      "yadza": 5253,
      "rata": 5254,
      "snrubs": 5255,
      "air": 5256,
      "shAm": 5257,
      "dAM": 5258,
      "342b": 5259,
      "brlams": 5260,
      "poo": 5261,
      "see": 5262,
      "bzlos": 5263,
      "tits": 5264,
      "barti": 5265,
      "khras": 5266,
      "329a": 5267,
      "332b": 5268,
      "335b": 5269,
      "330b": 5270,
      "bidya": 5271,
      "btsems": 5272,
      "://": 5273,
      "bgags": 5274,
      "bah": 5275,
      "stes": 5276,
      "kasha": 5277,
      "mdzo": 5278,
      "bhunydza": 5279,
      "ats": 5280,
      "bkyi": 5281,
      "ltang": 5282,
      "333b": 5283,
      "AHhU": 5284,
      "aos": 5285,
      "tardza": 5286,
      "kuT": 5287,
      "337b": 5288,
      "330a": 5289,
      "sben": 5290,
      "durga": 5291,
      "adya": 5292,
      "swAhA": 5293,
      "rkur": 5294,
      "345a": 5295,
      "347b": 5296,
      "349a": 5297,
      "sve": 5298,
      "dumw": 5299,
      "sgribs": 5300,
      "bata": 5301,
      "riSh": 5302,
      "rigas": 5303,
      "brnangs": 5304,
      "rgyugs": 5305,
      "skum": 5306,
      "phyogsa": 5307,
      "shka": 5308,
      "lir": 5309,
      "klags": 5310,
      "tsur": 5311,
      "byabs": 5312,
      "hanti": 5313,
      "kany": 5314,
      "rdzogsa": 5315,
      "grwar": 5316,
      "Nau": 5317,
      "mye": 5318,
      "bskong": 5319,
      "muSh": 5320,
      "shAM": 5321,
      "328b": 5322,
      "Thaka": 5323,
      "Thanya": 5324,
      "Shau": 5325,
      "jas": 5326,
      "sbyad": 5327,
      "sbod": 5328,
      "duh": 5329,
      "bshe": 5330,
      "shai": 5331,
      "351b": 5332,
      "358a": 5333,
      "kahthoga": 5334,
      "trim": 5335,
      "tsai": 5336,
      "shye": 5337,
      "aatta": 5338,
      "Tak": 5339,
      "333a": 5340,
      "346a": 5341,
      "357b": 5342,
      "rsha": 5343,
      "wal": 5344,
      "dai": 5345,
      "mata": 5346,
      "mthud": 5347,
      "bltab": 5348,
      "347a": 5349,
      "gyer": 5350,
      "desa": 5351,
      "tama": 5352,
      "esa": 5353,
      "rangga": 5354,
      "tsande": 5355,
      "arti": 5356,
      "gandhi": 5357,
      "gdus": 5358,
      "zhva": 5359,
      "hab": 5360,
      "tsor": 5361,
      "bzur": 5362,
      "brad": 5363,
      "gribs": 5364,
      "sambha": 5365,
      "urbe": 5366,
      "thI": 5367,
      "amb": 5368,
      "spung": 5369,
      "gnyig": 5370,
      "skugs": 5371,
      "marka": 5372,
      "dzapa": 5373,
      "asta": 5374,
      "anytsa": 5375,
      "aeta": 5376,
      "bAM": 5377,
      "343a": 5378,
      "357a": 5379,
      "phrem": 5380,
      "urnnu": 5381,
      "natte": 5382,
      "cana": 5383,
      "barjo": 5384,
      "ngasa": 5385,
      "shto": 5386,
      "badzras": 5387,
      "shoms": 5388,
      "ant": 5389,
      "tsid": 5390,
      "TiM": 5391,
      "354b": 5392,
      "pras": 5393,
      "madz": 5394,
      "bstuH": 5395,
      "soH": 5396,
      "kung": 5397,
      "bzhen": 5398,
      "358b": 5399,
      "suHsogs": 5400,
      "bged": 5401,
      "grI": 5402,
      "hrul": 5403,
      "lla": 5404,
      "data": 5405,
      "dzma": 5406,
      "sril": 5407,
      "beb": 5408,
      "345b": 5409,
      "348a": 5410,
      "354a": 5411,
      "dzaHzhes": 5412,
      "sdums": 5413,
      "mngo": 5414,
      "uM": 5415,
      "spA": 5416,
      "snams": 5417,
      "spabs": 5418,
      "356b": 5419,
      "Amra": 5420,
      "phres": 5421,
      "mushti": 5422,
      "samba": 5423,
      "siM": 5424,
      "ganda": 5425,
      "349b": 5426,
      "348b": 5427,
      "kurb": 5428,
      "[\\": 5429,
      "lot": 5430,
      "shim": 5431,
      "dzags": 5432,
      "346b": 5433,
      "basngala": 5434,
      "isha": 5435,
      "sUr": 5436,
      "tsyu": 5437,
      "sgrags": 5438,
      "osra": 5439,
      "mus": 5440,
      "spubs": 5441,
      "341b": 5442,
      "ddhi": 5443,
      "bshugs": 5444,
      "thom": 5445,
      "grungs": 5446,
      "irsha": 5447,
      "rdzings": 5448,
      "352a": 5449,
      "glag": 5450,
      "prats": 5451,
      "yAd": 5452,
      "dhyee": 5453,
      "rAk": 5454,
      "bandu": 5455,
      "atta": 5456,
      "lAM": 5457,
      "356a": 5458,
      "agre": 5459,
      "batt": 5460,
      "huk": 5461,
      "skras": 5462,
      "aardza": 5463,
      "lit": 5464,
      "warma": 5465,
      "shinyts": 5466,
      "351a": 5467,
      "350b": 5468,
      "362b": 5469,
      "myug": 5470,
      "dzub": 5471,
      "sata": 5472,
      "yany": 5473,
      "kAM": 5474,
      "lcid": 5475,
      "350a": 5476,
      "373a": 5477,
      "ker": 5478,
      "sli": 5479,
      "yah": 5480,
      "dzhu": 5481,
      "nyamsa": 5482,
      "bsdums": 5483,
      "355a": 5484,
      "woH": 5485,
      "cong": 5486,
      "rtun": 5487,
      "khregs": 5488,
      "myag": 5489,
      "353b": 5490,
      "syee": 5491,
      "paR": 5492,
      "mchoga": 5493,
      "bcun": 5494,
      "rkya": 5495,
      "bhram": 5496,
      "brnags": 5497,
      "tsong": 5498,
      "nin": 5499,
      "nash": 5500,
      "dzyo": 5501,
      "kut": 5502,
      "chis": 5503,
      "bish": 5504,
      "dhra": 5505,
      "355b": 5506,
      "hrIM": 5507,
      "bzhug": 5508,
      "klod": 5509,
      "sgye": 5510,
      "bardzi": 5511,
      "tuSh": 5512,
      "bungs": 5513,
      "kat": 5514,
      "bzlums": 5515,
      "grar": 5516,
      "blar": 5517,
      "aits": 5518,
      "kir": 5519,
      "bdzra": 5520,
      "hro": 5521,
      "oms": 5522,
      "kuna": 5523,
      "lun": 5524,
      "phror": 5525,
      "ardzu": 5526,
      "rdi": 5527,
      "zugs": 5528,
      "masa": 5529,
      "shit": 5530,
      "pippa": 5531,
      "arba": 5532,
      "kAR": 5533,
      "kshim": 5534,
      "paksha": 5535,
      "mom": 5536,
      "TiH": 5537,
      "brAh": 5538,
      "shvadtha": 5539,
      "ish": 5540,
      "sbong": 5541,
      "phum": 5542,
      "tsab": 5543,
      "autp": 5544,
      "bsnyer": 5545,
      "yantu": 5546,
      "lika": 5547,
      "hUH": 5548,
      "santa": 5549,
      "dzahs": 5550,
      "369a": 5551,
      "gcam": 5552,
      "pull": 5553,
      "lamba": 5554,
      "shtr": 5555,
      "rtsegs": 5556,
      "ldana": 5557,
      "YaM": 5558,
      "gyangs": 5559,
      "ii": 5560,
      "ldab": 5561,
      "sbru": 5562,
      "urnna": 5563,
      "chil": 5564,
      "lita": 5565,
      "362a": 5566,
      "361a": 5567,
      "nutpanna": 5568,
      "bsgrun": 5569,
      "mngona": 5570,
      "besh": 5571,
      "sting": 5572,
      "parba": 5573,
      "sig": 5574,
      "tsandi": 5575,
      "359a": 5576,
      "jab": 5577,
      "ThI": 5578,
      "bardz": 5579,
      "khun": 5580,
      "byil": 5581,
      "rakto": 5582,
      "ldar": 5583,
      "mnyed": 5584,
      "skr": 5585,
      "gasla": 5586,
      "phubs": 5587,
      "gdar": 5588,
      "mchur": 5589,
      "iSha": 5590,
      "nvi": 5591,
      "sut": 5592,
      "sak": 5593,
      "aardzu": 5594,
      "lendra": 5595,
      "bIr": 5596,
      "NuH": 5597,
      "skang": 5598,
      "rtsas": 5599,
      "shee": 5600,
      "[?]/": 5601,
      "shunthi": 5602,
      "lokya": 5603,
      "thoms": 5604,
      "nuH": 5605,
      "shukla": 5606,
      "tAtra": 5607,
      "359b": 5608,
      "369b": 5609,
      "374b": 5610,
      "rundh": 5611,
      "rbi": 5612,
      "gshes": 5613,
      "rASh": 5614,
      "353a": 5615,
      "363a": 5616,
      "365b": 5617,
      "bti": 5618,
      "tron": 5619,
      "rishta": 5620,
      "nogs": 5621,
      "bhar": 5622,
      "372b": 5623,
      "379a": 5624,
      "[*'": 5625,
      "bardzusa": 5626,
      "sph": 5627,
      "bazla": 5628,
      "mthos": 5629,
      "dpong": 5630,
      "gcun": 5631,
      "shambhi": 5632,
      "352b": 5633,
      "365a": 5634,
      "muHzhes": 5635,
      "ktv": 5636,
      "phus": 5637,
      "dzim": 5638,
      "sraM": 5639,
      "satya": 5640,
      "phigs": 5641,
      "mnams": 5642,
      "sarbam": 5643,
      "mAr": 5644,
      "378b": 5645,
      "hrem": 5646,
      "enga": 5647,
      "dim": 5648,
      "rdzogas": 5649,
      "aushn": 5650,
      "raksh": 5651,
      "siddhe": 5652,
      "ghn": 5653,
      "gshig": 5654,
      "duhkha": 5655,
      "kom": 5656,
      "rmod": 5657,
      "brnga": 5658,
      "karta": 5659,
      "ast": 5660,
      "anda": 5661,
      "kit": 5662,
      "Shata": 5663,
      "360b": 5664,
      "dwI": 5665,
      "rtis": 5666,
      "ush": 5667,
      "toH": 5668,
      "skA": 5669,
      "sai": 5670,
      "tseg": 5671,
      "srum": 5672,
      "lcong": 5673,
      "361b": 5674,
      "373b": 5675,
      "dhvi": 5676,
      "datte": 5677,
      "thaka": 5678,
      "snyung": 5679,
      "374a": 5680,
      "granthi": 5681,
      "manydza": 5682,
      "myo": 5683,
      "yushma": 5684,
      "khI": 5685,
      "tsat": 5686,
      "dktha": 5687,
      "tsig": 5688,
      "brdzangs": 5689,
      "smen": 5690,
      "367b": 5691,
      "384a": 5692,
      "bhoo": 5693,
      "ShoH": 5694,
      "tstshan": 5695,
      "zhis": 5696,
      "riny": 5697,
      "tAn": 5698,
      "shuddh": 5699,
      "364b": 5700,
      "411b": 5701,
      "nyol": 5702,
      "py": 5703,
      "moksha": 5704,
      "dpyal": 5705,
      "aanytsa": 5706,
      "gtsugs": 5707,
      "bed": 5708,
      "banda": 5709,
      "363b": 5710,
      "YaH": 5711,
      "Thu": 5712,
      "pyA": 5713,
      "ngana": 5714,
      "bzu": 5715,
      "dbyingsa": 5716,
      "ltong": 5717,
      "360a": 5718,
      "dzoo": 5719,
      "mnyel": 5720,
      "aR": 5721,
      "byul": 5722,
      "ee": 5723,
      "rla": 5724,
      "slag": 5725,
      "sgyel": 5726,
      "urna": 5727,
      "patti": 5728,
      "thol": 5729,
      "spyangs": 5730,
      "shrim": 5731,
      "gandi": 5732,
      "aambu": 5733,
      "375a": 5734,
      "389b": 5735,
      "388b": 5736,
      "kaddhya": 5737,
      "paT": 5738,
      "duna": 5739,
      "barba": 5740,
      "barda": 5741,
      "loga": 5742,
      "drer": 5743,
      "ShaSh": 5744,
      "384b": 5745,
      "ghuta": 5746,
      "hangs": 5747,
      "kv": 5748,
      "pli": 5749,
      "pata": 5750,
      "mukti": 5751,
      "bishnu": 5752,
      "shum": 5753,
      "gcis": 5754,
      "kraM": 5755,
      "377b": 5756,
      "395b": 5757,
      "hrihsh": 5758,
      "nt": 5759,
      "snyon": 5760,
      "britti": 5761,
      "sib": 5762,
      "yAt": 5763,
      "zhogs": 5764,
      "383b": 5765,
      "412a": 5766,
      "lwa": 5767,
      "yadz": 5768,
      "taksha": 5769,
      "phy": 5770,
      "bartta": 5771,
      "yant": 5772,
      "phobs": 5773,
      "badzrI": 5774,
      "kis": 5775,
      "gshor": 5776,
      "hrIHlas": 5777,
      "batte": 5778,
      "kol": 5779,
      "yasa": 5780,
      "bsgrang": 5781,
      "dira": 5782,
      "astri": 5783,
      "brtseg": 5784,
      "dhishth": 5785,
      "366a": 5786,
      "376a": 5787,
      "378a": 5788,
      "datt": 5789,
      "bsting": 5790,
      "phyon": 5791,
      "bsngams": 5792,
      "puka": 5793,
      "piN": 5794,
      "367a": 5795,
      "386a": 5796,
      "381b": 5797,
      "388a": 5798,
      "412b": 5799,
      "grig": 5800,
      "bsor": 5801,
      "yongas": 5802,
      "buka": 5803,
      "khasa": 5804,
      "dgog": 5805,
      "tsik": 5806,
      "aosa": 5807,
      "364a": 5808,
      "379b": 5809,
      "387b": 5810,
      "sbrags": 5811,
      "tsunda": 5812,
      "my": 5813,
      "prI": 5814,
      "riM": 5815,
      "chams": 5816,
      "bskyung": 5817,
      "brengs": 5818,
      "dzus": 5819,
      "pee": 5820,
      "389a": 5821,
      "thU": 5822,
      "sanytsa": 5823,
      "nuka": 5824,
      "svi": 5825,
      "sbrin": 5826,
      "zul": 5827,
      "368a": 5828,
      "380a": 5829,
      "gdag": 5830,
      "lle": 5831,
      "tyee": 5832,
      "kuk": 5833,
      "rem": 5834,
      "dundu": 5835,
      "sgral": 5836,
      "bita": 5837,
      "bhre": 5838,
      "swaH": 5839,
      "gzeng": 5840,
      "372a": 5841,
      "376b": 5842,
      "nirti": 5843,
      "hrIHyig": 5844,
      "Ipra": 5845,
      "haT": 5846,
      "hana": 5847,
      "skrun": 5848,
      "tsakre": 5849,
      "zher": 5850,
      "aany": 5851,
      "rlogs": 5852,
      "dhye": 5853,
      "tsand": 5854,
      "arsh": 5855,
      "bAH": 5856,
      "rdzis": 5857,
      "haHsarba": 5858,
      "394b": 5859,
      "linda": 5860,
      "matshana": 5861,
      "eta": 5862,
      "shiSh": 5863,
      "grems": 5864,
      "aandha": 5865,
      "382a": 5866,
      "395a": 5867,
      "tshinda": 5868,
      "aasht": 5869,
      "kanta": 5870,
      "ranta": 5871,
      "368b": 5872,
      "386b": 5873,
      "418a": 5874,
      "IM": 5875,
      "ara": 5876,
      "byaH": 5877,
      "rongs": 5878,
      "tanta": 5879,
      "zal": 5880,
      "nud": 5881,
      "tsitra": 5882,
      "dhyam": 5883,
      "zhos": 5884,
      "410b": 5885,
      "ada": 5886,
      "bser": 5887,
      "tsaka": 5888,
      "drishti": 5889,
      "sarti": 5890,
      "gloo": 5891,
      "sISh": 5892,
      "bkyigs": 5893,
      "hram": 5894,
      "itra": 5895,
      "krum": 5896,
      "mngan": 5897,
      "dagu": 5898,
      "dzU": 5899,
      "lota": 5900,
      "sarga": 5901,
      "lena": 5902,
      "shyam": 5903,
      "sanni": 5904,
      "370a": 5905,
      "387a": 5906,
      "rendra": 5907,
      "bshung": 5908,
      "kvipa": 5909,
      "hroom": 5910,
      "Tar": 5911,
      "adu": 5912,
      "ardza": 5913,
      "spya": 5914,
      "bzlogs": 5915,
      "shwad": 5916,
      "landa": 5917,
      "phogs": 5918,
      "beng": 5919,
      "brgyug": 5920,
      "kroshtu": 5921,
      "sbug": 5922,
      "366b": 5923,
      "375b": 5924,
      "377a": 5925,
      "381a": 5926,
      "kumbha": 5927,
      "wanta": 5928,
      "+'": 5929,
      "dli": 5930,
      "ky": 5931,
      "ls": 5932,
      "ly": 5933,
      "zim": 5934,
      "matte": 5935,
      "dzye": 5936,
      "brdos": 5937,
      "drishta": 5938,
      "bsgongs": 5939,
      "tsampa": 5940,
      "aap": 5941,
      "407a": 5942,
      "binda": 5943,
      "duHkha": 5944,
      "barjoda": 5945,
      "grigs": 5946,
      "mma": 5947,
      "nn": 5948,
      "haka": 5949,
      "kub": 5950,
      "nAH": 5951,
      "dzeng": 5952,
      "370b": 5953,
      "383a": 5954,
      "385b": 5955,
      "mryum": 5956,
      "411a": 5957,
      "400b": 5958,
      "a0": 5959,
      "lpa": 5960,
      "rmog": 5961,
      "ter": 5962,
      "lotstsha": 5963,
      "gtsos": 5964,
      "thabsa": 5965,
      "hAn": 5966,
      "irya": 5967,
      "371b": 5968,
      "371a": 5969,
      "382b": 5970,
      "bgrungs": 5971,
      "tsvi": 5972,
      "bsgag": 5973,
      "ciga": 5974,
      "gzong": 5975,
      "dkan": 5976,
      "bet": 5977,
      "beSh": 5978,
      "sidha": 5979,
      "390a": 5980,
      "ShIH": 5981,
      "krunytsa": 5982,
      "tsint": 5983,
      "sgyogs": 5984,
      "Apra": 5985,
      "drol": 5986,
      "jum": 5987,
      "tsy": 5988,
      "nirga": 5989,
      "bsnyag": 5990,
      "rnama": 5991,
      "garga": 5992,
      "nagna": 5993,
      "sbyon": 5994,
      "shAs": 5995,
      "glau": 5996,
      "tsAr": 5997,
      "spyoms": 5998,
      "Th": 5999,
      "dings": 6000,
      "chugs": 6001,
      "yongsa": 6002,
      "slos": 6003,
      "muts": 6004,
      "ShaN": 6005,
      "munydza": 6006,
      "pAM": 6007,
      "413b": 6008,
      "402b": 6009,
      "shIng": 6010,
      "421a": 6011,
      "bdung": 6012,
      "bgam": 6013,
      "sl": 6014,
      "zon": 6015,
      "yiSh": 6016,
      "yaT": 6017,
      "madza": 6018,
      "bstang": 6019,
      "pora": 6020,
      "tshis": 6021,
      "khyar": 6022,
      "khyig": 6023,
      "piM": 6024,
      "aitsa": 6025,
      "bandhu": 6026,
      "385a": 6027,
      "380b": 6028,
      "392b": 6029,
      "390b": 6030,
      "403b": 6031,
      "dhvan": 6032,
      "krAn": 6033,
      "blings": 6034,
      "hmi": 6035,
      "ngun": 6036,
      "tsos": 6037,
      "bsgags": 6038,
      "dash": 6039,
      "masta": 6040,
      "drel": 6041,
      "gAng": 6042,
      "dombi": 6043,
      "413a": 6044,
      "414a": 6045,
      "396a": 6046,
      "402a": 6047,
      "401b": 6048,
      "aHzhes": 6049,
      "bdungs": 6050,
      "rtan": 6051,
      "baT": 6052,
      "shiM": 6053,
      "gzur": 6054,
      "bskyad": 6055,
      "aats": 6056,
      "thugsa": 6057,
      "bkyed": 6058,
      "shogs": 6059,
      "karti": 6060,
      "tran": 6061,
      "rIH": 6062,
      "drum": 6063,
      "394a": 6064,
      "403a": 6065,
      "404a": 6066,
      "401a": 6067,
      "rundha": 6068,
      "nimba": 6069,
      "ghum": 6070,
      "lli": 6071,
      "nid": 6072,
      "thoba": 6073,
      "kus": 6074,
      "bdena": 6075,
      "dbur": 6076,
      "svam": 6077,
      "dhishtha": 6078,
      "mkhos": 6079,
      "425b": 6080,
      "apta": 6081,
      "mba": 6082,
      "mru": 6083,
      "rb": 6084,
      "tasta": 6085,
      "nyir": 6086,
      "ltod": 6087,
      "dAH": 6088,
      "gAH": 6089,
      "397b": 6090,
      "423a": 6091,
      "425a": 6092,
      "hve": 6093,
      ")@#//": 6094,
      "bhum": 6095,
      "lder": 6096,
      "plu": 6097,
      "subs": 6098,
      "brling": 6099,
      "snA": 6100,
      "litstsha": 6101,
      "asti": 6102,
      "khrun": 6103,
      "kyapa": 6104,
      "ShAH": 6105,
      "juga": 6106,
      "392a": 6107,
      "424b": 6108,
      "420a": 6109,
      "arg": 6110,
      "ikshna": 6111,
      "pung": 6112,
      "nirma": 6113,
      "bsur": 6114,
      "phyod": 6115,
      "diSh": 6116,
      "gardzdza": 6117,
      "tsas": 6118,
      "gcom": 6119,
      "aenga": 6120,
      "harme": 6121,
      "417a": 6122,
      "405b": 6123,
      "443b": 6124,
      "dhrika": 6125,
      "skoms": 6126,
      "%/": 6127,
      "ndra": 6128,
      "rmA": 6129,
      "tring": 6130,
      "patsa": 6131,
      "bsrul": 6132,
      "dantu": 6133,
      "khaH": 6134,
      "khadga": 6135,
      "thee": 6136,
      "mul": 6137,
      "siddh": 6138,
      "391b": 6139,
      "398a": 6140,
      "405a": 6141,
      "aung": 6142,
      "radz": 6143,
      "bart": 6144,
      "barnna": 6145,
      "tipa": 6146,
      "brtsom": 6147,
      "khyir": 6148,
      "393b": 6149,
      "397a": 6150,
      "asa": 6151,
      "tna": 6152,
      "naT": 6153,
      "lata": 6154,
      "lakshm": 6155,
      "tai": 6156,
      "songs": 6157,
      "spub": 6158,
      "kutta": 6159,
      "karn": 6160,
      "gzhin": 6161,
      "aushni": 6162,
      "shAH": 6163,
      "ldems": 6164,
      "417b": 6165,
      "rbha": 6166,
      "marta": 6167,
      "mathe": 6168,
      "bston": 6169,
      "lee": 6170,
      "bdes": 6171,
      "mthuna": 6172,
      "sarbo": 6173,
      "Nama": 6174,
      "dzahhu": 6175,
      "410a": 6176,
      "423b": 6177,
      "443a": 6178,
      "445a": 6179,
      "bhrinya": 6180,
      "bgod": 6181,
      "mdar": 6182,
      "rtA": 6183,
      "yida": 6184,
      "yuTa": 6185,
      "posa": 6186,
      "kurma": 6187,
      "luH": 6188,
      "astu": 6189,
      "purna": 6190,
      "bhat": 6191,
      "416b": 6192,
      "404b": 6193,
      "409a": 6194,
      "409b": 6195,
      "420b": 6196,
      "daMSh": 6197,
      "tangs": 6198,
      "bsran": 6199,
      "cada": 6200,
      "aasma": 6201,
      "dzak": 6202,
      "warna": 6203,
      "gred": 6204,
      "aetsa": 6205,
      "krit": 6206,
      "418b": 6207,
      "396b": 6208,
      "391a": 6209,
      "ShuHsogs": 6210,
      "nte": 6211,
      "rbA": 6212,
      "sgam": 6213,
      "lama": 6214,
      "miH": 6215,
      "dznye": 6216,
      "dbh": 6217,
      "basha": 6218,
      "dmig": 6219,
      "lingka": 6220,
      "dAn": 6221,
      "ainda": 6222,
      "406b": 6223,
      "rashmi": 6224,
      "aug": 6225,
      "dmad": 6226,
      "ghanya": 6227,
      "myA": 6228,
      "stags": 6229,
      "ngita": 6230,
      "yaSh": 6231,
      "tot": 6232,
      "gai": 6233,
      "phrar": 6234,
      "thengs": 6235,
      "dkte": 6236,
      "bkus": 6237,
      "grengs": 6238,
      "dhru": 6239,
      "mAng": 6240,
      "tshvar": 6241,
      "393a": 6242,
      "407b": 6243,
      "hvags": 6244,
      "bshums": 6245,
      "gcen": 6246,
      "sud": 6247,
      "geg": 6248,
      "smrang": 6249,
      "bskongs": 6250,
      "rtsoms": 6251,
      "padmor": 6252,
      "autstsha": 6253,
      "kartri": 6254,
      "trar": 6255,
      "408a": 6256,
      "408b": 6257,
      "426a": 6258,
      "kalpi": 6259,
      "shraddh": 6260,
      "myigs": 6261,
      "dmyigs": 6262,
      "rnyid": 6263,
      "lau": 6264,
      "gshang": 6265,
      "rana": 6266,
      "amba": 6267,
      "shinga": 6268,
      "draM": 6269,
      "sdogs": 6270,
      "tAta": 6271,
      "dzuH": 6272,
      "414b": 6273,
      "shrantha": 6274,
      "Shad": 6275,
      "Than": 6276,
      "Tan": 6277,
      "ldud": 6278,
      "barlanga": 6279,
      "khyag": 6280,
      "gub": 6281,
      "spad": 6282,
      "tshya": 6283,
      "anna": 6284,
      "ngasra": 6285,
      "yaHswA": 6286,
      "422b": 6287,
      "ThaM": 6288,
      "gni": 6289,
      "srA": 6290,
      "dusa": 6291,
      "hos": 6292,
      "bsgrol": 6293,
      "dzhal": 6294,
      "dandi": 6295,
      "rdzongs": 6296,
      "dpyis": 6297,
      "gragsa": 6298,
      "sih": 6299,
      "pratstsha": 6300,
      "gsola": 6301,
      "bsngogs": 6302,
      "aoor": 6303,
      "400a": 6304,
      "427b": 6305,
      "em": 6306,
      "gdud": 6307,
      "gtul": 6308,
      "zir": 6309,
      "rina": 6310,
      "tub": 6311,
      "tuta": 6312,
      "brtses": 6313,
      "btsad": 6314,
      "brubs": 6315,
      "bhyasta": 6316,
      "dzik": 6317,
      "428a": 6318,
      "1dang": 6319,
      "myongs": 6320,
      "nyog": 6321,
      "sthu": 6322,
      "ura": 6323,
      "win": 6324,
      "angga": 6325,
      "kunydza": 6326,
      "aasthi": 6327,
      "skabsa": 6328,
      "phungs": 6329,
      "dhma": 6330,
      "thya": 6331,
      "shamba": 6332,
      "AHbadzra": 6333,
      "416a": 6334,
      "419a": 6335,
      "406a": 6336,
      "424a": 6337,
      "shuddhonyaham": 6338,
      "bsnyod": 6339,
      "aagne": 6340,
      "mb": 6341,
      "mbi": 6342,
      "rmug": 6343,
      "snyid": 6344,
      "sdon": 6345,
      "yuka": 6346,
      "sup": 6347,
      "thoo": 6348,
      "bzhan": 6349,
      "shm": 6350,
      "rasmi": 6351,
      "rAn": 6352,
      "balla": 6353,
      "thAs": 6354,
      "dzee": 6355,
      "419b": 6356,
      "dzanma": 6357,
      "gundhe": 6358,
      "kshan": 6359,
      "dums": 6360,
      "sprus": 6361,
      "rtstsa": 6362,
      "rtsengs": 6363,
      "narbh": 6364,
      "tAs": 6365,
      "kASh": 6366,
      "girti": 6367,
      "stree": 6368,
      "ShAn": 6369,
      "399a": 6370,
      "399b": 6371,
      "398b": 6372,
      "sparsha": 6373,
      "shIR": 6374,
      "422a": 6375,
      "421b": 6376,
      "432b": 6377,
      "436b": 6378,
      "442a": 6379,
      "ipa": 6380,
      "dkta": 6381,
      "mArga": 6382,
      "triM": 6383,
      "TAn": 6384,
      "banta": 6385,
      "aarti": 6386,
      "427a": 6387,
      "ll": 6388,
      "ldam": 6389,
      "ldangs": 6390,
      "swe": 6391,
      "yri": 6392,
      "brdeb": 6393,
      "nantu": 6394,
      "panth": 6395,
      "snyem": 6396,
      "santi": 6397,
      "aindri": 6398,
      "415b": 6399,
      "415a": 6400,
      "hohs": 6401,
      "432a": 6402,
      "453b": 6403,
      "madzada": 6404,
      "brnogs": 6405,
      "wak": 6406,
      "pita": 6407,
      "panytsi": 6408,
      "u0f85ha": 6409,
      "435a": 6410,
      "437a": 6411,
      "444a": 6412,
      "gnyar": 6413,
      "dyam": 6414,
      "snya": 6415,
      "syam": 6416,
      "hid": 6417,
      "yona": 6418,
      "bastu": 6419,
      "tshogsa": 6420,
      "nuta": 6421,
      "yante": 6422,
      "nytsoo": 6423,
      "panda": 6424,
      "ratn": 6425,
      "kampa": 6426,
      "aamba": 6427,
      "428b": 6428,
      "436a": 6429,
      "430b": 6430,
      "hrihtha": 6431,
      "apra": 6432,
      "lye": 6433,
      "sgar": 6434,
      "sgrung": 6435,
      "twAM": 6436,
      "bargya": 6437,
      "chon": 6438,
      "brdebs": 6439,
      "kanya": 6440,
      "urnu": 6441,
      "thangs": 6442,
      "aarbu": 6443,
      "435b": 6444,
      "438b": 6445,
      "452b": 6446,
      "gyogs": 6447,
      "rlang": 6448,
      "sngun": 6449,
      "bste": 6450,
      "bstad": 6451,
      "bsrun": 6452,
      "loo": 6453,
      "shodha": 6454,
      "zhol": 6455,
      "bhikshu": 6456,
      "hrinya": 6457,
      "drU": 6458,
      "dIr": 6459,
      "dIpa": 6460,
      "panyts": 6461,
      "426b": 6462,
      "433b": 6463,
      "437b": 6464,
      "438a": 6465,
      "452a": 6466,
      "bacasa": 6467,
      "mno": 6468,
      "yuta": 6469,
      "lod": 6470,
      "kata": 6471,
      "smAta": 6472,
      "dmigas": 6473,
      "phram": 6474,
      "dhas": 6475,
      "ainya": 6476,
      "434b": 6477,
      "451a": 6478,
      "gandham": 6479,
      "atstsha": 6480,
      "gnyes": 6481,
      "ksam": 6482,
      "kke": 6483,
      "tsad": 6484,
      "bsri": 6485,
      "rtod": 6486,
      "mchir": 6487,
      "slab": 6488,
      "trUM": 6489,
      "raHsogs": 6490,
      "AHyig": 6491,
      "431a": 6492,
      "bzungs": 6493,
      "gtags": 6494,
      "gnos": 6495,
      "stra": 6496,
      "pakshi": 6497,
      "napa": 6498,
      "bsnyan": 6499,
      "chong": 6500,
      "lob": 6501,
      "brnya": 6502,
      "kag": 6503,
      "dgongas": 6504,
      "aawa": 6505,
      "thega": 6506,
      "karmA": 6507,
      "shangga": 6508,
      "429a": 6509,
      "434a": 6510,
      "430a": 6511,
      "439b": 6512,
      "440a": 6513,
      "453a": 6514,
      "singga": 6515,
      "gyal": 6516,
      "hl": 6517,
      "myog": 6518,
      "psa": 6519,
      "yash": 6520,
      "barje": 6521,
      "chul": 6522,
      "spyug": 6523,
      "chagas": 6524,
      "gcang": 6525,
      "gregs": 6526,
      "kAny": 6527,
      "444b": 6528,
      "441b": 6529,
      "445b": 6530,
      "bstud": 6531,
      "hta": 6532,
      "mnon": 6533,
      "sngang": 6534,
      "yib": 6535,
      "nishth": 6536,
      "bartti": 6537,
      "dzrim": 6538,
      "khyis": 6539,
      "hanta": 6540,
      "kats": 6541,
      "nyts": 6542,
      "rngad": 6543,
      "swaM": 6544,
      "ratne": 6545,
      "bsdig": 6546,
      "429b": 6547,
      "431b": 6548,
      "448b": 6549,
      "456b": 6550,
      "kiny": 6551,
      "u0f7f": 6552,
      "drog": 6553,
      "stv": 6554,
      "uk": 6555,
      "zhad": 6556,
      "dape": 6557,
      "karnna": 6558,
      "shil": 6559,
      "tshus": 6560,
      "pushta": 6561,
      "nanti": 6562,
      "piSh": 6563,
      "lumbi": 6564,
      "baiDUr": 6565,
      "grantha": 6566,
      "440b": 6567,
      "hrIHzhes": 6568,
      "454a": 6569,
      "90": 6570,
      "adz": 6571,
      "her": 6572,
      "kyii": 6573,
      "gama": 6574,
      "brI": 6575,
      "khrog": 6576,
      "gco": 6577,
      "439a": 6578,
      "hoHsa": 6579,
      "shvam": 6580,
      "tsarya": 6581,
      "dda": 6582,
      "itsa": 6583,
      "ktha": 6584,
      "bazha": 6585,
      "hah": 6586,
      "rge": 6587,
      "cinga": 6588,
      "gat": 6589,
      "intam": 6590,
      "slonga": 6591,
      "rnnu": 6592,
      "dhat": 6593,
      "panti": 6594,
      "krosht": 6595,
      "sendha": 6596,
      "dzAM": 6597,
      "Dita": 6598,
      "433a": 6599,
      "449a": 6600,
      "441a": 6601,
      "455a": 6602,
      "skanda": 6603,
      "gsigs": 6604,
      "tser": 6605,
      "ltab": 6606,
      "mok": 6607,
      "kyisa": 6608,
      "sama": 6609,
      "rdzes": 6610,
      "nuT": 6611,
      "yantra": 6612,
      "khanya": 6613,
      "ShuM": 6614,
      "irti": 6615,
      "442b": 6616,
      "455b": 6617,
      "dzhala": 6618,
      "pUrbA": 6619,
      "yushmad": 6620,
      "bardzisa": 6621,
      "adza": 6622,
      "nig": 6623,
      "mahA": 6624,
      "bzi": 6625,
      "shung": 6626,
      "sambi": 6627,
      "zhub": 6628,
      "gzhob": 6629,
      "pusti": 6630,
      "dIp": 6631,
      "448a": 6632,
      "DApa": 6633,
      "brga": 6634,
      "gnyal": 6635,
      "ldes": 6636,
      "snyes": 6637,
      "pats": 6638,
      "gshag": 6639,
      "dzmi": 6640,
      "gongs": 6641,
      "slog": 6642,
      "thegs": 6643,
      "muM": 6644,
      "bik": 6645,
      "btagsa": 6646,
      "arbu": 6647,
      "arsha": 6648,
      "Nita": 6649,
      "\\/....(": 6650,
      "prAp": 6651,
      "bhringga": 6652,
      "An": 6653,
      "The": 6654,
      "tstsa": 6655,
      "rola": 6656,
      "skogs": 6657,
      "sed": 6658,
      "dbyang": 6659,
      "gen": 6660,
      "wat": 6661,
      "thin": 6662,
      "hUr": 6663,
      "skyal": 6664,
      "antam": 6665,
      "bhras": 6666,
      "byir": 6667,
      "tAr": 6668,
      "zanga": 6669,
      "kshnu": 6670,
      "rundhan": 6671,
      "/[": 6672,
      "We": 6673,
      "gcag": 6674,
      "jar": 6675,
      "rmyang": 6676,
      "tuM": 6677,
      "kaD": 6678,
      "sgrag": 6679,
      "dzau": 6680,
      "spog": 6681,
      "bhl": 6682,
      "aira": 6683,
      "brom": 6684,
      "sbeg": 6685,
      "446a": 6686,
      "456a": 6687,
      "bshegs": 6688,
      "Nan": 6689,
      "glas": 6690,
      "rnas": 6691,
      "khyugs": 6692,
      "katstsha": 6693,
      "tsata": 6694,
      "cesa": 6695,
      "tshen": 6696,
      "smyur": 6697,
      "lAH": 6698,
      "brtabs": 6699,
      "446b": 6700,
      "451b": 6701,
      "dushtam": 6702,
      "tishthi": 6703,
      "ldabs": 6704,
      "hyasta": 6705,
      "yuT": 6706,
      "dasa": 6707,
      "brabs": 6708,
      "shmi": 6709,
      "chib": 6710,
      "aashma": 6711,
      "lanta": 6712,
      "kart": 6713,
      "bhrum": 6714,
      "dhir": 6715,
      "brong": 6716,
      "khyus": 6717,
      "sandhi": 6718,
      "aardha": 6719,
      "bkrir": 6720,
      "aangga": 6721,
      "nvan": 6722,
      "sappa": 6723,
      "dyan": 6724,
      "hraH": 6725,
      "pyam": 6726,
      "rmar": 6727,
      "gsig": 6728,
      "dabye": 6729,
      "bskyis": 6730,
      "khyur": 6731,
      "dand": 6732,
      "shina": 6733,
      "sams": 6734,
      "inti": 6735,
      "slod": 6736,
      "bkrongs": 6737,
      "siSh": 6738,
      "yAstAM": 6739,
      "tAma": 6740,
      "balka": 6741,
      "ahma": 6742,
      "457a": 6743,
      "aihth": 6744,
      "bdam": 6745,
      "lri": 6746,
      "yaNa": 6747,
      "dada": 6748,
      "tstsho": 6749,
      "raSh": 6750,
      "doH": 6751,
      "ritstsha": 6752,
      "bcod": 6753,
      "khrum": 6754,
      "gzab": 6755,
      "hrid": 6756,
      "hrish": 6757,
      "shany": 6758,
      "dzaHdzaH": 6759,
      "459b": 6760,
      "463a": 6761,
      "464b": 6762,
      "briddha": 6763,
      "mukte": 6764,
      "iHwi": 6765,
      "mnas": 6766,
      "haSha": 6767,
      "sora": 6768,
      "springs": 6769,
      "bis": 6770,
      "sihla": 6771,
      "prah": 6772,
      "ralli": 6773,
      "pit": 6774,
      "urti": 6775,
      "ltem": 6776,
      "tshvas": 6777,
      "dvoo": 6778,
      "sbrar": 6779,
      "anytsi": 6780,
      "[\\]": 6781,
      "gyol": 6782,
      "nakshi": 6783,
      "phyos": 6784,
      "huny": 6785,
      "rgo": 6786,
      "suta": 6787,
      "seg": 6788,
      "chada": 6789,
      "omu": 6790,
      "tishta": 6791,
      "rigsa": 6792,
      "gupta": 6793,
      "mtshur": 6794,
      "cuomu": 6795,
      "andha": 6796,
      "airti": 6797,
      "wAka": 6798,
      "rngabs": 6799,
      "lcib": 6800,
      "swar": 6801,
      "shtham": 6802,
      "454b": 6803,
      "457b": 6804,
      "460b": 6805,
      "bshul": 6806,
      "shabda": 6807,
      "adzny": 6808,
      "hni": 6809,
      "hnu": 6810,
      "ipta": 6811,
      "rdus": 6812,
      "srag": 6813,
      "sbrag": 6814,
      "bazanga": 6815,
      "nita": 6816,
      "bstangs": 6817,
      "thabas": 6818,
      "rut": 6819,
      "gosa": 6820,
      "jibs": 6821,
      "khabs": 6822,
      "brte": 6823,
      "nanga": 6824,
      "gtog": 6825,
      "nandi": 6826,
      "praH": 6827,
      "hriH": 6828,
      "[?]//": 6829,
      "450b": 6830,
      "sgrigs": 6831,
      "AR": 6832,
      "ashtsa": 6833,
      "gwa": 6834,
      "pla": 6835,
      "syu": 6836,
      "rah": 6837,
      "noom": 6838,
      "kab": 6839,
      "lub": 6840,
      "mangga": 6841,
      "hAnya": 6842,
      "dzing": 6843,
      "pAr": 6844,
      "447a": 6845,
      "447b": 6846,
      "458a": 6847,
      "465a": 6848,
      "Dom": 6849,
      "hil": 6850,
      "phyid": 6851,
      "khag": 6852,
      "kuSh": 6853,
      "linga": 6854,
      "sarbaM": 6855,
      "urbba": 6856,
      "450a": 6857,
      "bilba": 6858,
      "/....('": 6859,
      "kongkana": 6860,
      "damara": 6861,
      "gy": 6862,
      "rnang": 6863,
      "mana": 6864,
      "byany": 6865,
      "bslan": 6866,
      "raT": 6867,
      "sob": 6868,
      "brasa": 6869,
      "rdzny": 6870,
      "zhugsa": 6871,
      "bkris": 6872,
      "prad": 6873,
      "bhyas": 6874,
      "sraH": 6875,
      "ShiM": 6876,
      "gshogs": 6877,
      "nyAn": 6878,
      "bsnyeg": 6879,
      "458b": 6880,
      "460a": 6881,
      "pUrbe": 6882,
      "ldib": 6883,
      "sbrebs": 6884,
      "harmAHswa": 6885,
      "aTa": 6886,
      "krang": 6887,
      "ktam": 6888,
      "tswi": 6889,
      "teH": 6890,
      "gangga": 6891,
      "iny": 6892,
      "rtabs": 6893,
      "snyogs": 6894,
      "tsiN": 6895,
      "dzig": 6896,
      "bstir": 6897,
      "dAr": 6898,
      "kIs": 6899,
      "bindu": 6900,
      "bhanda": 6901,
      "DUR": 6902,
      "thes": 6903,
      "yya": 6904,
      "hast": 6905,
      "bsgrad": 6906,
      "gala": 6907,
      "sogsa": 6908,
      "shte": 6909,
      "thil": 6910,
      "mundi": 6911,
      "pAH": 6912,
      "tIk": 6913,
      "gdongs": 6914,
      "AHzhes": 6915,
      "449b": 6916,
      "462b": 6917,
      "aatma": 6918,
      "Ag": 6919,
      "dyoo": 6920,
      "irgha": 6921,
      "khin": 6922,
      "rnu": 6923,
      "snge": 6924,
      "lagas": 6925,
      "yula": 6926,
      "muh": 6927,
      "gzing": 6928,
      "phulla": 6929,
      "munda": 6930,
      "bAr": 6931,
      "461a": 6932,
      "bahni": 6933,
      "a8": 6934,
      "dbar": 6935,
      "ddhe": 6936,
      "hm": 6937,
      "iksha": 6938,
      "ldad": 6939,
      "sbad": 6940,
      "bsla": 6941,
      "bsigs": 6942,
      "barj": 6943,
      "rgyad": 6944,
      "sungs": 6945,
      "dany": 6946,
      "jiga": 6947,
      "spe": 6948,
      "khaD": 6949,
      "shyan": 6950,
      "rkyan": 6951,
      "brita": 6952,
      "dhatt": 6953,
      "aub": 6954,
      "sbams": 6955,
      "459a": 6956,
      "464a": 6957,
      "bhany": 6958,
      "shloka": 6959,
      "sbam": 6960,
      "tUr": 6961,
      "vam": 6962,
      "bats": 6963,
      "batta": 6964,
      "supra": 6965,
      "dipa": 6966,
      "tsara": 6967,
      "legas": 6968,
      "tshug": 6969,
      "gzugsa": 6970,
      "aasth": 6971,
      "lik": 6972,
      "dzaksha": 6973,
      "bishti": 6974,
      "samya": 6975,
      "mtshul": 6976,
      "463b": 6977,
      "461b": 6978,
      "ThAH": 6979,
      "syanda": 6980,
      "[\\[]": 6981,
      "mkhon": 6982,
      "ota": 6983,
      "sdun": 6984,
      "haR": 6985,
      "hok": 6986,
      "phril": 6987,
      "tanda": 6988,
      "stoo": 6989,
      "gsungsa": 6990,
      "smye": 6991,
      "shapa": 6992,
      "shts": 6993,
      "shtsanda": 6994,
      "spangsa": 6995,
      "sharka": 6996,
      "lugsa": 6997,
      "kran": 6998,
      "dAt": 6999,
      "pem": 7000,
      "tsoH": 7001,
      "rmm": 7002,
      "465b": 7003,
      "[\\]]": 7004,
      "awa": 7005,
      "rri": 7006,
      "rgyo": 7007,
      "lom": 7008,
      "khamas": 7009,
      "bzlugs": 7010,
      "kunta": 7011,
      "shana": 7012,
      "alpa": 7013,
      "lany": 7014,
      "rnni": 7015,
      "klungs": 7016,
      "bAka": 7017,
      "satk": 7018,
      "kIrti": 7019,
      "sIH": 7020,
      "palla": 7021,
      "gzob": 7022,
      "kurbba": 7023,
      "kalpaH": 7024,
      "sgrig": 7025,
      "shirsha": 7026,
      "phreM": 7027,
      "bardzesa": 7028,
      "nyor": 7029,
      "srig": 7030,
      "tsUr": 7031,
      "hish": 7032,
      "dznoom": 7033,
      "brdul": 7034,
      "smang": 7035,
      "aae": 7036,
      "bkon": 7037,
      "tshI": 7038,
      "gamli": 7039,
      "rloms": 7040,
      "dzamb": 7041,
      "yaHsarba": 7042,
      "AHhrIH": 7043,
      "tinti": 7044,
      "Uta": 7045,
      "aya": 7046,
      "krim": 7047,
      "sbri": 7048,
      "troo": 7049,
      "nata": 7050,
      "latsa": 7051,
      "yut": 7052,
      "dishta": 7053,
      "shiga": 7054,
      "rtstsha": 7055,
      "shpa": 7056,
      "bsgor": 7057,
      "dadh": 7058,
      "rnyongs": 7059,
      "tshrin": 7060,
      "sdor": 7061,
      "praSh": 7062,
      "bandh": 7063,
      "ghas": 7064,
      "aota": 7065,
      "hasmi": 7066,
      "[,]'": 7067,
      "Ama": 7068,
      "tris": 7069,
      "baSh": 7070,
      "barma": 7071,
      "rjud": 7072,
      "shle": 7073,
      "aanya": 7074,
      "shunya": 7075,
      "bsabs": 7076,
      "dzis": 7077,
      "svan": 7078,
      "Shid": 7079,
      "yakshe": 7080,
      "dzalpa": 7081,
      "'-": 7082,
      "NAH": 7083,
      "aksh": 7084,
      "btad": 7085,
      "dbya": 7086,
      "dyanti": 7087,
      "etsa": 7088,
      "hyam": 7089,
      "usa": 7090,
      "pai": 7091,
      "dzrI": 7092,
      "dzheem": 7093,
      "khrin": 7094,
      "kaiH": 7095,
      "rkos": 7096,
      "shoH": 7097,
      "bshas": 7098,
      "dAk": 7099,
      "snyig": 7100,
      "bindha": 7101,
      "skandha": 7102,
      "barjesa": 7103,
      "1pa": 7104,
      "Ir": 7105,
      "knu": 7106,
      "plaksha": 7107,
      "sbag": 7108,
      "tyo": 7109,
      "bzhig": 7110,
      "ngaga": 7111,
      "graM": 7112,
      "dgosa": 7113,
      "manga": 7114,
      "byenya": 7115,
      "aul": 7116,
      "prashtha": 7117,
      "sengges": 7118,
      "tsiH": 7119,
      "Shing": 7120,
      "Nam": 7121,
      "dkyi": 7122,
      "pyaM": 7123,
      "rmon": 7124,
      "sgru": 7125,
      "pasang": 7126,
      "sprog": 7127,
      "byangs": 7128,
      "bcugs": 7129,
      "srings": 7130,
      "gtstsha": 7131,
      "pusta": 7132,
      "anydza": 7133,
      "kyai": 7134,
      "btums": 7135,
      "u0f90": 7136,
      "raksham": 7137,
      "[(]'": 7138,
      "475b": 7139,
      "kinna": 7140,
      "bcan": 7141,
      "pti": 7142,
      "rtu": 7143,
      "slangs": 7144,
      "sbor": 7145,
      "uN": 7146,
      "ve": 7147,
      "baza": 7148,
      "hem": 7149,
      "tsol": 7150,
      "phyor": 7151,
      "mitte": 7152,
      "dznyi": 7153,
      "kaT": 7154,
      "kasma": 7155,
      "byog": 7156,
      "tib": 7157,
      "aasmad": 7158,
      "aasti": 7159,
      "rkri": 7160,
      "tsany": 7161,
      "mund": 7162,
      "shambha": 7163,
      "gzag": 7164,
      "satye": 7165,
      "dzAH": 7166,
      "u0fa": 7167,
      "476a": 7168,
      "NoH": 7169,
      "gno": 7170,
      "lcu": 7171,
      "rha": 7172,
      "swo": 7173,
      "lana": 7174,
      "dubs": 7175,
      "yeta": 7176,
      "dip": 7177,
      "dit": 7178,
      "dzdz": 7179,
      "khyos": 7180,
      "adha": 7181,
      "rjesa": 7182,
      "snyug": 7183,
      "stobsa": 7184,
      "brtagsa": 7185,
      "bodhi": 7186,
      "aarya": 7187,
      "462a": 7188,
      "bzhags": 7189,
      "nvanti": 7190,
      "bashada": 7191,
      "agla": 7192,
      "bgag": 7193,
      "kwin": 7194,
      "rlu": 7195,
      "niny": 7196,
      "teng": 7197,
      "rot": 7198,
      "thanya": 7199,
      "ruta": 7200,
      "brn": 7201,
      "bze": 7202,
      "sag": 7203,
      "dram": 7204,
      "bskyel": 7205,
      "aaksh": 7206,
      "sarwe": 7207,
      "badzram": 7208,
      "trat": 7209,
      "dhrya": 7210,
      "nyI": 7211,
      "pAN": 7212,
      "shvasta": 7213,
      "pritstsha": 7214,
      "shIn": 7215,
      "TuH": 7216,
      "466a": 7217,
      "476b": 7218,
      "478a": 7219,
      "wantoo": 7220,
      "';": 7221,
      "ldo": 7222,
      "mmi": 7223,
      "mthangs": 7224,
      "ying": 7225,
      "naksha": 7226,
      "yati": 7227,
      "hig": 7228,
      "kying": 7229,
      "rima": 7230,
      "rok": 7231,
      "runga": 7232,
      "cid": 7233,
      "dzang": 7234,
      "nora": 7235,
      "dbyugs": 7236,
      "tsakri": 7237,
      "gzugas": 7238,
      "shtsu": 7239,
      "mant": 7240,
      "sarw": 7241,
      "benya": 7242,
      "grangsa": 7243,
      "phalgu": 7244,
      "bAk": 7245,
      "bhis": 7246,
      "ShiH": 7247,
      "AHdang": 7248,
      "473a": 7249,
      "rdubs": 7250,
      "mathara": 7251,
      "a9": 7252,
      "ark": 7253,
      "ryam": 7254,
      "tth": 7255,
      "baka": 7256,
      "bsen": 7257,
      "rasa": 7258,
      "cin": 7259,
      "thosa": 7260,
      "tshongs": 7261,
      "tsana": 7262,
      "drad": 7263,
      "dugdha": 7264,
      "snags": 7265,
      "tsandr": 7266,
      "krishta": 7267,
      "trU": 7268,
      "rkus": 7269,
      "tasthi": 7270,
      "u0fa4": 7271,
      "aha": 7272,
      "bdan": 7273,
      "lh": 7274,
      "dera": 7275,
      "bsnyes": 7276,
      "gzhad": 7277,
      "jin": 7278,
      "kaSh": 7279,
      "shtv": 7280,
      "aura": 7281,
      "tsandre": 7282,
      "bAt": 7283,
      "irtti": 7284,
      "467a": 7285,
      "469b": 7286,
      "468b": 7287,
      "477a": 7288,
      "sindu": 7289,
      "bldad": 7290,
      "apt": 7291,
      "dmos": 7292,
      "grin": 7293,
      "snyag": 7294,
      "yashti": 7295,
      "nishtha": 7296,
      "bsgugs": 7297,
      "rnamas": 7298,
      "skyung": 7299,
      "kushtha": 7300,
      "brtsod": 7301,
      "dgongsa": 7302,
      "bek": 7303,
      "dhatte": 7304,
      "bruM": 7305,
      "gtib": 7306,
      "thka": 7307,
      "bhiksha": 7308,
      "sanna": 7309,
      "467b": 7310,
      "473b": 7311,
      "dattam": 7312,
      "sgyigs": 7313,
      "apno": 7314,
      "mashtsanda": 7315,
      "bazhaga": 7316,
      "drI": 7317,
      "gga": 7318,
      "idz": 7319,
      "kkha": 7320,
      "paksh": 7321,
      "bade": 7322,
      "hed": 7323,
      "bsrab": 7324,
      "nyida": 7325,
      "sker": 7326,
      "moM": 7327,
      "gsug": 7328,
      "nush": 7329,
      "phras": 7330,
      "rkong": 7331,
      "phuT": 7332,
      "gzim": 7333,
      "hAs": 7334,
      "sdings": 7335,
      "khyem": 7336,
      "urtta": 7337,
      "skrar": 7338,
      "bshar": 7339,
      "btungs": 7340,
      "lcim": 7341,
      "sAn": 7342,
      "atm": 7343,
      "468a": 7344,
      "sgrims": 7345,
      "smigs": 7346,
      "aadya": 7347,
      "kony": 7348,
      "aoorn": 7349,
      "gbhy": 7350,
      "hrA": 7351,
      "lhangs": 7352,
      "mm": 7353,
      "mring": 7354,
      "nni": 7355,
      "ssa": 7356,
      "tral": 7357,
      "yatra": 7358,
      "rama": 7359,
      "yoM": 7360,
      "rish": 7361,
      "shram": 7362,
      "myaM": 7363,
      "bisht": 7364,
      "rne": 7365,
      "tsinya": 7366,
      "tsikshi": 7367,
      "kshat": 7368,
      "sAm": 7369,
      "tsuH": 7370,
      "tsukka": 7371,
      "ghatta": 7372,
      "Ship": 7373,
      "bzhogs": 7374,
      "466b": 7375,
      "469a": 7376,
      "472b": 7377,
      "phinya": 7378,
      "MphaT": 7379,
      "ardzi": 7380,
      "bhang": 7381,
      "bli": 7382,
      "hrig": 7383,
      "kyA": 7384,
      "ldom": 7385,
      "zog": 7386,
      "batti": 7387,
      "banydza": 7388,
      "niM": 7389,
      "minga": 7390,
      "gzang": 7391,
      "jings": 7392,
      "brnyed": 7393,
      "shiksha": 7394,
      "chagsa": 7395,
      "manggu": 7396,
      "bkyal": 7397,
      "birya": 7398,
      "prash": 7399,
      "bcir": 7400,
      "dgha": 7401,
      "andi": 7402,
      "ltebs": 7403,
      "nydzi": 7404,
      "stas": 7405,
      "srabs": 7406,
      "brdze": 7407,
      "krong": 7408,
      "dwai": 7409,
      "stun": 7410,
      "shyat": 7411,
      "471a": 7412,
      "dzantu": 7413,
      "tsumba": 7414,
      "eshta": 7415,
      "bhrasdza": 7416,
      "brnyogs": 7417,
      "aod": 7418,
      "artsi": 7419,
      "atsha": 7420,
      "bUr": 7421,
      "kris": 7422,
      "mw": 7423,
      "rmong": 7424,
      "up": 7425,
      "baha": 7426,
      "banytsa": 7427,
      "deH": 7428,
      "toSh": 7429,
      "rgh": 7430,
      "gin": 7431,
      "mol": 7432,
      "not": 7433,
      "gyisa": 7434,
      "bskyam": 7435,
      "shno": 7436,
      "hAN": 7437,
      "bgor": 7438,
      "sbugs": 7439,
      "drums": 7440,
      "tvat": 7441,
      "dwagsa": 7442,
      "runda": 7443,
      "472a": 7444,
      "477b": 7445,
      "470a": 7446,
      "00": 7447,
      "ardz": 7448,
      "ht": 7449,
      "kki": 7450,
      "rdha": 7451,
      "gshu": 7452,
      "roH": 7453,
      "stos": 7454,
      "draH": 7455,
      "wadbhy": 7456,
      "tshaH": 7457,
      "kAN": 7458,
      "bIta": 7459,
      "twAta": 7460,
      "abra": 7461,
      "pug": 7462,
      "yangku": 7463,
      "khyol": 7464,
      "gruba": 7465,
      "rjee": 7466,
      "dger": 7467,
      "graH": 7468,
      "shashti": 7469,
      "rtsog": 7470,
      "nuSh": 7471,
      "sngagsa": 7472,
      "khamsa": 7473,
      "drisht": 7474,
      "phut": 7475,
      "buddhya": 7476,
      "karba": 7477,
      "tAraHsogs": 7478,
      "glebs": 7479,
      "bAR": 7480,
      "sunda": 7481,
      "aantu": 7482,
      "dIng": 7483,
      "panydza": 7484,
      "shUl": 7485,
      "apnu": 7486,
      "Yo": 7487,
      "apha": 7488,
      "gnyag": 7489,
      "lyam": 7490,
      "patta": 7491,
      "heH": 7492,
      "tes": 7493,
      "yot": 7494,
      "dzol": 7495,
      "mora": 7496,
      "lusa": 7497,
      "bzlum": 7498,
      "tit": 7499,
      "leg": 7500,
      "damna": 7501,
      "gshegas": 7502,
      "zaba": 7503,
      "bskyas": 7504,
      "langtha": 7505,
      "waka": 7506,
      "munya": 7507,
      "prat": 7508,
      "klur": 7509,
      "traT": 7510,
      "ShaD": 7511,
      "shwan": 7512,
      "aamb": 7513,
      "dheta": 7514,
      "missing": 7515,
      "nimpa": 7516,
      "478b": 7517,
      "lcugs": 7518,
      "bb": 7519,
      "bhad": 7520,
      "gtab": 7521,
      "kshun": 7522,
      "rtna": 7523,
      "sgegs": 7524,
      "tli": 7525,
      "gsab": 7526,
      "diH": 7527,
      "tuN": 7528,
      "sem": 7529,
      "tsaR": 7530,
      "bkyon": 7531,
      "mchig": 7532,
      "warta": 7533,
      "mudga": 7534,
      "khul": 7535,
      "gzhur": 7536,
      "arthi": 7537,
      "nems": 7538,
      "rIn": 7539,
      "sbungs": 7540,
      "stum": 7541,
      "sIta": 7542,
      "tarka": 7543,
      "475a": 7544,
      "470b": 7545,
      "pulli": 7546,
      "Wi": 7547,
      "bdams": 7548,
      "dzhin": 7549,
      "psya": 7550,
      "rdug": 7551,
      "rlubs": 7552,
      "phyog": 7553,
      "riT": 7554,
      "rgyag": 7555,
      "brka": 7556,
      "brlar": 7557,
      "sngagas": 7558,
      "aaksho": 7559,
      "gcug": 7560,
      "bhye": 7561,
      "thra": 7562,
      "shwaH": 7563,
      "aahdamara": 7564,
      "474a": 7565,
      "471b": 7566,
      "brahm": 7567,
      "sphot": 7568,
      "akshi": 7569,
      "asmA": 7570,
      "glar": 7571,
      "kko": 7572,
      "mrA": 7573,
      "ndu": 7574,
      "zun": 7575,
      "yakshi": 7576,
      "yadznya": 7577,
      "maT": 7578,
      "yurdzny": 7579,
      "gnyisa": 7580,
      "tikshna": 7581,
      "tshengs": 7582,
      "asmad": 7583,
      "buddho": 7584,
      "drem": 7585,
      "pits": 7586,
      "kanti": 7587,
      "bandi": 7588,
      "irtis": 7589,
      "maHzhes": 7590,
      "480a": 7591,
      "btabs": 7592,
      "rinyts": 7593,
      "konyham": 7594,
      ";;/": 7595,
      "bdu": 7596,
      "hwe": 7597,
      "rdang": 7598,
      "rbe": 7599,
      "rtti": 7600,
      "trog": 7601,
      "ngA": 7602,
      "dapala": 7603,
      "mab": 7604,
      "tats": 7605,
      "mitti": 7606,
      "tutta": 7607,
      "khren": 7608,
      "dante": 7609,
      "brngo": 7610,
      "kuta": 7611,
      "sardzi": 7612,
      "kundu": 7613,
      "zhed": 7614,
      "dampa": 7615,
      "yantoo": 7616,
      "rkom": 7617,
      "padmos": 7618,
      "mdong": 7619,
      "rasta": 7620,
      "rnn": 7621,
      "dhatta": 7622,
      "bhasmi": 7623,
      "aik": 7624,
      "Shatra": 7625,
      "artti": 7626,
      "bcoma": 7627,
      "thk": 7628,
      "triH": 7629,
      "kambu": 7630,
      "kshvi": 7631,
      "bsnubs": 7632,
      "maHswA": 7633,
      "hIM": 7634,
      "mendra": 7635,
      "mjes": 7636,
      "ShIta": 7637,
      "hwags": 7638,
      "yauH": 7639,
      "ghanda": 7640,
      "hreM": 7641,
      "dakara": 7642,
      "lhwam": 7643,
      "/]": 7644,
      "ITa": 7645,
      "jen": 7646,
      "klI": 7647,
      "lbal": 7648,
      "mkhun": 7649,
      "ona": 7650,
      "lams": 7651,
      "gshub": 7652,
      "ngab": 7653,
      "tany": 7654,
      "khat": 7655,
      "kuM": 7656,
      "satvam": 7657,
      "gshen": 7658,
      "nuTa": 7659,
      "shthe": 7660,
      "rkka": 7661,
      "bib": 7662,
      "dhaka": 7663,
      "bhas": 7664,
      "drong": 7665,
      "dhm": 7666,
      "kharba": 7667,
      "rakkha": 7668,
      "dvang": 7669,
      "baidur": 7670,
      "hrai": 7671,
      "aatte": 7672,
      "ghande": 7673,
      "rmus": 7674,
      "।।।।।।।।": 7675,
      "mUrti": 7676,
      "bduna": 7677,
      "rngos": 7678,
      "rdar": 7679,
      "sdog": 7680,
      "stab": 7681,
      "heT": 7682,
      "bsnyam": 7683,
      "tardzdza": 7684,
      "rishtha": 7685,
      "din": 7686,
      "gada": 7687,
      "nyab": 7688,
      "brala": 7689,
      "byong": 7690,
      "warnna": 7691,
      "shuH": 7692,
      "sampra": 7693,
      "sminra": 7694,
      "aet": 7695,
      "gandh": 7696,
      "shuddhi": 7697,
      "kIrta": 7698,
      "hohzhesa": 7699,
      "474b": 7700,
      "nvanta": 7701,
      "pinda": 7702,
      "shranthi": 7703,
      "aalpa": 7704,
      "arta": 7705,
      "hyan": 7706,
      "klor": 7707,
      "ltog": 7708,
      "ntra": 7709,
      "ntim": 7710,
      "batra": 7711,
      "hasa": 7712,
      "tash": 7713,
      "miga": 7714,
      "dzdzi": 7715,
      "bura": 7716,
      "mosa": 7717,
      "thobs": 7718,
      "kug": 7719,
      "tsakr": 7720,
      "aab": 7721,
      "gtser": 7722,
      "bitta": 7723,
      "bsar": 7724,
      "kartA": 7725,
      "khanti": 7726,
      "tsanta": 7727,
      "tsandal": 7728,
      ":/....(": 7729,
      "zhod": 7730,
      "shvan": 7731,
      "gArg": 7732,
      "drUM": 7733,
      "AHlas": 7734,
      "rmmi": 7735,
      "kumbhi": 7736,
      "485a": 7737,
      "480b": 7738,
      "499b": 7739,
      "smina": 7740,
      "tsunde": 7741,
      ":/...(/": 7742,
      "bsnyugs": 7743,
      "Tau": 7744,
      "ira": 7745,
      "pakshya": 7746,
      "ninda": 7747,
      "rik": 7748,
      "barni": 7749,
      "barlo": 7750,
      "barbri": 7751,
      "ltam": 7752,
      "geng": 7753,
      "tsaksha": 7754,
      "smyen": 7755,
      "shla": 7756,
      "shres": 7757,
      "brtsol": 7758,
      "brtsir": 7759,
      "bida": 7760,
      "thy": 7761,
      "485b": 7762,
      "tsakli": 7763,
      "shapda": 7764,
      "bardzanga": 7765,
      "]/": 7766,
      "hraM": 7767,
      "klam": 7768,
      "mbu": 7769,
      "uka": 7770,
      "ukshma": 7771,
      "heM": 7772,
      "danbhi": 7773,
      "spi": 7774,
      "stom": 7775,
      "braM": 7776,
      "mdzum": 7777,
      "yanytsa": 7778,
      "rastu": 7779,
      "rnA": 7780,
      "sharba": 7781,
      "auna": 7782,
      "prahma": 7783,
      "khanydza": 7784,
      "antu": 7785,
      "bhrim": 7786,
      "bsubs": 7787,
      "mahsa": 7788,
      "gzem": 7789,
      "pushka": 7790,
      "sindh": 7791,
      "481a": 7792,
      "kshee": 7793,
      ":....('": 7794,
      "dznyoom": 7795,
      "dtha": 7796,
      "inga": 7797,
      "jor": 7798,
      "krig": 7799,
      "kring": 7800,
      "lai": 7801,
      "bsnos": 7802,
      "tsakshi": 7803,
      "shl": 7804,
      "span": 7805,
      "mantu": 7806,
      "phutta": 7807,
      "phyem": 7808,
      "pheem": 7809,
      "urtha": 7810,
      "byibs": 7811,
      "bcosa": 7812,
      "srogs": 7813,
      "kheng": 7814,
      "shwasta": 7815,
      "yaHsa": 7816,
      "stU": 7817,
      "drya": 7818,
      "purba": 7819,
      "aantar": 7820,
      "kIrtis": 7821,
      "kurban": 7822,
      "479b": 7823,
      "482a": 7824,
      "500a": 7825,
      "anu": 7826,
      "krog": 7827,
      "ken": 7828,
      "mnags": 7829,
      "rbu": 7830,
      "swI": 7831,
      "twI": 7832,
      "nabs": 7833,
      "tsri": 7834,
      "hiN": 7835,
      "bslas": 7836,
      "bsub": 7837,
      "bstsol": 7838,
      "tel": 7839,
      "rgi": 7840,
      "dzhee": 7841,
      "ngasi": 7842,
      "basgo": 7843,
      "shams": 7844,
      "shash": 7845,
      "garba": 7846,
      "rnno": 7847,
      "rnyong": 7848,
      "beg": 7849,
      "praM": 7850,
      "yAtra": 7851,
      "khany": 7852,
      "pispa": 7853,
      "aishtha": 7854,
      "nydz": 7855,
      "gtems": 7856,
      "swah": 7857,
      "swasti": 7858,
      "dAnya": 7859,
      "sandha": 7860,
      "rngod": 7861,
      "siddhim": 7862,
      "479a": 7863,
      "483a": 7864,
      "484b": 7865,
      "481b": 7866,
      "liny": 7867,
      "ldings": 7868,
      "2dang": 7869,
      "Adz": 7870,
      "bldabs": 7871,
      "dwang": 7872,
      "gdha": 7873,
      "htam": 7874,
      "jos": 7875,
      "osa": 7876,
      "tpanna": 7877,
      "yiH": 7878,
      "hash": 7879,
      "hong": 7880,
      "makhasa": 7881,
      "gyid": 7882,
      "dika": 7883,
      "adma": 7884,
      "gunydza": 7885,
      "rkA": 7886,
      "thel": 7887,
      "bisma": 7888,
      "rtsid": 7889,
      "zhug": 7890,
      "puH": 7891,
      "jogs": 7892,
      "bhran": 7893,
      "khel": 7894,
      "shwau": 7895,
      "gAM": 7896,
      "aanna": 7897,
      "Tita": 7898,
      "aindha": 7899,
      "488b": 7900,
      "tishth": 7901,
      "rmeg": 7902,
      "aanggu": 7903,
      "bighna": 7904,
      "damshta": 7905,
      "brind": 7906,
      "([": 7907,
      "asht": 7908,
      "btog": 7909,
      "cug": 7910,
      "drig": 7911,
      "pyi": 7912,
      "sthe": 7913,
      "tka": 7914,
      "nipa": 7915,
      "mak": 7916,
      "yeSh": 7917,
      "toshn": 7918,
      "dzham": 7919,
      "kush": 7920,
      "kara": 7921,
      "kastu": 7922,
      "phana": 7923,
      "tika": 7924,
      "zhena": 7925,
      "aartsi": 7926,
      "garda": 7927,
      "mastu": 7928,
      "lhungs": 7929,
      "wAH": 7930,
      "kAm": 7931,
      "shantu": 7932,
      "mahs": 7933,
      "gshongs": 7934,
      "sbel": 7935,
      "484a": 7936,
      "489a": 7937,
      "499a": 7938,
      "aanga": 7939,
      "aadhi": 7940,
      "shtunya": 7941,
      "ghanta": 7942,
      "dapaga": 7943,
      "trindha": 7944,
      "kukku": 7945,
      "Ye": 7946,
      "`/": 7947,
      "bes": 7948,
      "ntha": 7949,
      "rdeng": 7950,
      "tyoo": 7951,
      "yashtsa": 7952,
      "dap": 7953,
      "tsli": 7954,
      "hit": 7955,
      "madzdza": 7956,
      "roksha": 7957,
      "ruN": 7958,
      "sung": 7959,
      "gana": 7960,
      "gara": 7961,
      "dbi": 7962,
      "tsaksh": 7963,
      "dmigsa": 7964,
      "wata": 7965,
      "britt": 7966,
      "spyings": 7967,
      "budha": 7968,
      "shastra": 7969,
      "aem": 7970,
      "nAr": 7971,
      "TAH": 7972,
      "dwau": 7973,
      "bkrur": 7974,
      "AHoM": 7975,
      "tyat": 7976,
      "satve": 7977,
      "hrauM": 7978,
      "506a": 7979,
      "bdi": 7980,
      "brig": 7981,
      "bhal": 7982,
      "dhad": 7983,
      "oSh": 7984,
      "tp": 7985,
      "uh": 7986,
      "zod": 7987,
      "pakshu": 7988,
      "tasmin": 7989,
      "teg": 7990,
      "meng": 7991,
      "kasm": 7992,
      "guh": 7993,
      "aash": 7994,
      "manti": 7995,
      "mdoga": 7996,
      "khror": 7997,
      "btsang": 7998,
      "hAR": 7999,
      "dhakka": 8000,
      "skyab": 8001,
      "kyaM": 8002,
      "glee": 8003,
      "shvas": 8004,
      "gAr": 8005,
      "syat": 8006,
      "aantra": 8007,
      "ghna": 8008,
      "u0f88": 8009,
      "agni": 8010,
      "sUR": 8011,
      "482b": 8012,
      "483b": 8013,
      "488a": 8014,
      "502b": 8015,
      "tattva": 8016,
      "kshoo": 8017,
      "piny": 8018,
      "kunydzi": 8019,
      "aoornnu": 8020,
      "mn": 8021,
      "smes": 8022,
      "mada": 8023,
      "tatta": 8024,
      "rnab": 8025,
      "dik": 8026,
      "dzod": 8027,
      "mongas": 8028,
      "bongs": 8029,
      "titti": 8030,
      "rtsu": 8031,
      "guH": 8032,
      "shyanti": 8033,
      "dpu": 8034,
      "sit": 8035,
      "sipa": 8036,
      "bzheng": 8037,
      "mAs": 8038,
      "btubs": 8039,
      "snur": 8040,
      "thAm": 8041,
      "trya": 8042,
      "rvas": 8043,
      "u0f84": 8044,
      "u0f89": 8045,
      "nirbi": 8046,
      "bzhur": 8047,
      "biny": 8048,
      "486a": 8049,
      "ljib": 8050,
      "gIr": 8051,
      "bighnam": 8052,
      "stAr": 8053,
      "]@##": 8054,
      "aham": 8055,
      "byen": 8056,
      "kto": 8057,
      "klA": 8058,
      "ldags": 8059,
      "pye": 8060,
      "rmangs": 8061,
      "sdur": 8062,
      "swi": 8063,
      "urta": 8064,
      "tsen": 8065,
      "gyii": 8066,
      "thara": 8067,
      "cings": 8068,
      "dzre": 8069,
      "goH": 8070,
      "sphar": 8071,
      "brnyen": 8072,
      "bob": 8073,
      "graha": 8074,
      "smu": 8075,
      "mdzed": 8076,
      "bskyong": 8077,
      "snel": 8078,
      "sdeng": 8079,
      "dhattha": 8080,
      "puts": 8081,
      "ngud": 8082,
      "gsogs": 8083,
      "dgyed": 8084,
      "konya": 8085,
      "kiH": 8086,
      "kyatsa": 8087,
      "sAd": 8088,
      "yaHku": 8089,
      "tsitt": 8090,
      "kshme": 8091,
      "aante": 8092,
      "tshindha": 8093,
      "486b": 8094,
      "487a": 8095,
      "487b": 8096,
      "496b": 8097,
      "504a": 8098,
      "505b": 8099,
      "nve": 8100,
      "nishku": 8101,
      "bshed": 8102,
      "aer": 8103,
      "bhag": 8104,
      "gyas": 8105,
      "gdh": 8106,
      "idza": 8107,
      "kil": 8108,
      "sda": 8109,
      "sming": 8110,
      "tsyo": 8111,
      "madra": 8112,
      "mardza": 8113,
      "yutsa": 8114,
      "phring": 8115,
      "ruSh": 8116,
      "rgga": 8117,
      "skha": 8118,
      "skyos": 8119,
      "suka": 8120,
      "tuna": 8121,
      "bubs": 8122,
      "amn": 8123,
      "shishta": 8124,
      "tsaSh": 8125,
      "numra": 8126,
      "spaR": 8127,
      "lip": 8128,
      "byamsa": 8129,
      "111": 8130,
      "skeg": 8131,
      "dhur": 8132,
      "wiH": 8133,
      "....('": 8134,
      "u0f85n": 8135,
      "tshwar": 8136,
      "[)]'": 8137,
      "wantu": 8138,
      "489b": 8139,
      "490a": 8140,
      "490b": 8141,
      "dvee": 8142,
      "sargaH": 8143,
      "bardzangasa": 8144,
      "57": 8145,
      "TU": 8146,
      "Ung": 8147,
      "hli": 8148,
      "hrud": 8149,
      "mchen": 8150,
      "skyis": 8151,
      "daph": 8152,
      "tses": 8153,
      "bsto": 8154,
      "rashta": 8155,
      "thai": 8156,
      "thana": 8157,
      "barsh": 8158,
      "barngana": 8159,
      "garta": 8160,
      "jigas": 8161,
      "bskyes": 8162,
      "marma": 8163,
      "aatstsha": 8164,
      "snyog": 8165,
      "zera": 8166,
      "ansa": 8167,
      "nganga": 8168,
      "Shas": 8169,
      "kAs": 8170,
      "nAm": 8171,
      "sAH": 8172,
      "bzhog": 8173,
      "shanta": 8174,
      "gzeg": 8175,
      "sangas": 8176,
      "sarbbam": 8177,
      "gshib": 8178,
      "hoHb": 8179,
      "503a": 8180,
      "502a": 8181,
      "।।।": 8182,
      "mummu": 8183,
      "rlabsa": 8184,
      "phyva": 8185,
      "adzdza": 8186,
      "isht": 8187,
      "mtshogs": 8188,
      "syo": 8189,
      "taiH": 8190,
      "tosh": 8191,
      "buM": 8192,
      "khardzu": 8193,
      "dbe": 8194,
      "kadzdza": 8195,
      "sabta": 8196,
      "dgad": 8197,
      "galpo": 8198,
      "gtsod": 8199,
      "gnangs": 8200,
      "thiH": 8201,
      "thims": 8202,
      "briksh": 8203,
      "blangsa": 8204,
      "dkrogs": 8205,
      "yAr": 8206,
      "trata": 8207,
      "dzit": 8208,
      "dumba": 8209,
      "pAk": 8210,
      "tsuk": 8211,
      "stI": 8212,
      "AHni": 8213,
      "tsAM": 8214,
      "nirya": 8215,
      "mIs": 8216,
      "dvisha": 8217,
      "495a": 8218,
      "akki": 8219,
      "bkyig": 8220,
      "theshtam": 8221,
      "btong": 8222,
      "mla": 8223,
      "nana": 8224,
      "nakka": 8225,
      "matti": 8226,
      "rashtsa": 8227,
      "tada": 8228,
      "ringa": 8229,
      "dando": 8230,
      "luTa": 8231,
      "tista": 8232,
      "leT": 8233,
      "leng": 8234,
      "gshegsa": 8235,
      "bskye": 8236,
      "lambe": 8237,
      "shpe": 8238,
      "uny": 8239,
      "bishtha": 8240,
      "rnyang": 8241,
      "gzis": 8242,
      "punya": 8243,
      "baddha": 8244,
      "traka": 8245,
      "bhyi": 8246,
      "tsantra": 8247,
      "narba": 8248,
      "arbA": 8249,
      "kantu": 8250,
      "srak": 8251,
      "tshantu": 8252,
      "krodha": 8253,
      "khee": 8254,
      "stamba": 8255,
      "byU": 8256,
      "tsarka": 8257,
      "wanti": 8258,
      "mUH": 8259,
      "495b": 8260,
      "shraddha": 8261,
      "smryum": 8262,
      "gnoda": 8263,
      "kyong": 8264,
      "lv": 8265,
      "rshi": 8266,
      "rtta": 8267,
      "rbhy": 8268,
      "syad": 8269,
      "nada": 8270,
      "suSh": 8271,
      "hanra": 8272,
      "pasma": 8273,
      "gayasa": 8274,
      "luta": 8275,
      "lungs": 8276,
      "phaka": 8277,
      "saha": 8278,
      "kundi": 8279,
      "damba": 8280,
      "manra": 8281,
      "dkas": 8282,
      "btsi": 8283,
      "bisha": 8284,
      "bitstsha": 8285,
      "aurba": 8286,
      "karshi": 8287,
      "rmigs": 8288,
      "mAp": 8289,
      "kharsa": 8290,
      "tvo": 8291,
      "bhir": 8292,
      "dzems": 8293,
      "nIM": 8294,
      "tasthu": 8295,
      "sarbb": 8296,
      "dushtan": 8297,
      "492a": 8298,
      "491b": 8299,
      "491a": 8300,
      "digdha": 8301,
      "ऽऽऽऽ": 8302,
      "guptim": 8303,
      "hinggu": 8304,
      "aphagas": 8305,
      "Din": 8306,
      "aes": 8307,
      "acha": 8308,
      "bgas": 8309,
      "kwA": 8310,
      "lhe": 8311,
      "mp": 8312,
      "mdon": 8313,
      "mrgad": 8314,
      "pna": 8315,
      "sres": 8316,
      "ttra": 8317,
      "utra": 8318,
      "namaH": 8319,
      "yaksh": 8320,
      "yetra": 8321,
      "byag": 8322,
      "bstong": 8323,
      "barn": 8324,
      "barshi": 8325,
      "suk": 8326,
      "dzyam": 8327,
      "buk": 8328,
      "tsarba": 8329,
      "myak": 8330,
      "myam": 8331,
      "astra": 8332,
      "mtshungsa": 8333,
      "karbu": 8334,
      "kyes": 8335,
      "trak": 8336,
      "bhn": 8337,
      "aid": 8338,
      "shasta": 8339,
      "tvad": 8340,
      "bgrongs": 8341,
      "Shita": 8342,
      "druH": 8343,
      "druga": 8344,
      "nirb": 8345,
      "bslur": 8346,
      "kruM": 8347,
      "hrIHswA": 8348,
      "497a": 8349,
      "497b": 8350,
      "498b": 8351,
      "504b": 8352,
      "501b": 8353,
      "500b": 8354,
      "517a": 8355,
      "bakt": 8356,
      "patn": 8357,
      "yuHsogs": 8358,
      "aundi": 8359,
      "pindo": 8360,
      "banydzu": 8361,
      "/])": 8362,
      "Apa": 8363,
      "NU": 8364,
      "ddhya": 8365,
      "iti": 8366,
      "kod": 8367,
      "nde": 8368,
      "pnu": 8369,
      "sgugs": 8370,
      "ngha": 8371,
      "batsa": 8372,
      "naga": 8373,
      "parn": 8374,
      "parya": 8375,
      "parnna": 8376,
      "nip": 8377,
      "maR": 8378,
      "mama": 8379,
      "bsnub": 8380,
      "sudzdza": 8381,
      "dzur": 8382,
      "gzangs": 8383,
      "gzhen": 8384,
      "phyil": 8385,
      "gomas": 8386,
      "dant": 8387,
      "chabs": 8388,
      "tshid": 8389,
      "sngam": 8390,
      "shada": 8391,
      "guny": 8392,
      "shyi": 8393,
      "rkam": 8394,
      "mante": 8395,
      "yasra": 8396,
      "byeda": 8397,
      "biT": 8398,
      "auka": 8399,
      "badh": 8400,
      "dkrung": 8401,
      "joga": 8402,
      "bhva": 8403,
      "koSh": 8404,
      "skyom": 8405,
      "nyham": 8406,
      "aees": 8407,
      "khen": 8408,
      "pAn": 8409,
      "bhit": 8410,
      "//////": 8411,
      "randha": 8412,
      "Shunya": 8413,
      "panydzi": 8414,
      "tsAR": 8415,
      "aindr": 8416,
      "pUnya": 8417,
      "kalba": 8418,
      "493a": 8419,
      "492b": 8420,
      "496a": 8421,
      "501a": 8422,
      "haiM": 8423,
      "bstungs": 8424,
      "khrem": 8425,
      "damsht": 8426,
      "60": 8427,
      "Dan": 8428,
      "ToM": 8429,
      "hrom": 8430,
      "ip": 8431,
      "iShi": 8432,
      "kwan": 8433,
      "ml": 8434,
      "mle": 8435,
      "prag": 8436,
      "sbya": 8437,
      "sbab": 8438,
      "stad": 8439,
      "tyanta": 8440,
      "ymryum": 8441,
      "padmi": 8442,
      "tsye": 8443,
      "tstshando": 8444,
      "dut": 8445,
      "hot": 8446,
      "bsnyi": 8447,
      "ruska": 8448,
      "khoms": 8449,
      "shik": 8450,
      "sadz": 8451,
      "damra": 8452,
      "shay": 8453,
      "bcung": 8454,
      "tsamba": 8455,
      "aatt": 8456,
      "thed": 8457,
      "dbyib": 8458,
      "warti": 8459,
      "mtsham": 8460,
      "hAm": 8461,
      "sdoma": 8462,
      "prak": 8463,
      "praur": 8464,
      "rtagsa": 8465,
      "urtti": 8466,
      "dhno": 8467,
      "tsanti": 8468,
      "arha": 8469,
      "dziSh": 8470,
      "mAt": 8471,
      "bhid": 8472,
      "kamba": 8473,
      "siddham": 8474,
      "prishta": 8475,
      "lAm": 8476,
      "shanti": 8477,
      "dzahd": 8478,
      "kshut": 8479,
      "shvo": 8480,
      "sUk": 8481,
      "dwiSh": 8482,
      "498a": 8483,
      "yUM": 8484,
      "dyuta": 8485,
      "yushm": 8486,
      "pasang36": 8487,
      "cos": 8488,
      "htha": 8489,
      "jon": 8490,
      "mlee": 8491,
      "ntam": 8492,
      "rdh": 8493,
      "yra": 8494,
      "yaing": 8495,
      "gsa": 8496,
      "hala": 8497,
      "del": 8498,
      "parsha": 8499,
      "bsi": 8500,
      "tasm": 8501,
      "tashtsa": 8502,
      "dagga": 8503,
      "ruk": 8504,
      "rudha": 8505,
      "khreg": 8506,
      "dande": 8507,
      "tanma": 8508,
      "tantu": 8509,
      "sprig": 8510,
      "dbyid": 8511,
      "luM": 8512,
      "lugas": 8513,
      "nyaM": 8514,
      "bzlar": 8515,
      "adh": 8516,
      "nyeg": 8517,
      "gupa": 8518,
      "brela": 8519,
      "mtshona": 8520,
      "waSh": 8521,
      "bidhi": 8522,
      "sambuddhi": 8523,
      "dgugs": 8524,
      "nany": 8525,
      "brunya": 8526,
      "darba": 8527,
      "darshi": 8528,
      "Napra": 8529,
      "thl": 8530,
      "malli": 8531,
      "aeer": 8532,
      "bhishinytsa": 8533,
      "shwaM": 8534,
      "aamh": 8535,
      "aoom": 8536,
      "irtta": 8537,
      "jums": 8538,
      "sant": 8539,
      "dzahzhesa": 8540,
      "harmaH": 8541,
      "kurbA": 8542,
      "aeem": 8543,
      "494b": 8544,
      "493b": 8545,
      "494a": 8546,
      "505a": 8547,
      "507a": 8548,
      "516a": 8549,
      "517b": 8550,
      "bsgrig": 8551,
      "pattra": 8552,
      "nutpa": 8553,
      "digdhi": 8554,
      "proor": 8555,
      "yanytsoo": 8556,
      "kolla": 8557,
      "YUr": 8558,
      "ghee": 8559,
      "lyi": 8560,
      "mram": 8561,
      "oH": 8562,
      "yiga": 8563,
      "bsgro": 8564,
      "yub": 8565,
      "phrim": 8566,
      "rushka": 8567,
      "dindi": 8568,
      "ngaH": 8569,
      "longas": 8570,
      "gsungas": 8571,
      "khaT": 8572,
      "kadz": 8573,
      "saka": 8574,
      "smyang": 8575,
      "smyag": 8576,
      "shaSh": 8577,
      "mdzoda": 8578,
      "guhya": 8579,
      "aarma": 8580,
      "biksha": 8581,
      "sarpi": 8582,
      "rasme": 8583,
      "bsan": 8584,
      "siH": 8585,
      "sidhya": 8586,
      "ausa": 8587,
      "autstshi": 8588,
      "lingg": 8589,
      "lceb": 8590,
      "yAsa": 8591,
      "gtig": 8592,
      "nywa": 8593,
      "glem": 8594,
      "brdzu": 8595,
      "kheb": 8596,
      "lArka": 8597,
      "aantsa": 8598,
      "dvishma": 8599,
      "503b": 8600,
      "506b": 8601,
      "grihnantu": 8602,
      "argam": 8603,
      "3dang": 8604,
      "Nai": 8605,
      "ib": 8606,
      "ldis": 8607,
      "mre": 8608,
      "pl": 8609,
      "rye": 8610,
      "yita": 8611,
      "badza": 8612,
      "parshad": 8613,
      "tsyung": 8614,
      "yuh": 8615,
      "tapta": 8616,
      "sphi": 8617,
      "bora": 8618,
      "shiT": 8619,
      "shisht": 8620,
      "tsarmma": 8621,
      "gragas": 8622,
      "shwo": 8623,
      "brtsen": 8624,
      "muka": 8625,
      "sampu": 8626,
      "budhya": 8627,
      "chesa": 8628,
      "nyva": 8629,
      "kyag": 8630,
      "kandha": 8631,
      "sbro": 8632,
      "ranti": 8633,
      "u0f85s": 8634,
      "DAM": 8635,
      "tshwas": 8636,
      "ranydzi": 8637,
      "duHkhaM": 8638,
      "pinydza": 8639,
      "shringga": 8640,
      "aanytsu": 8641,
      "nirgats": 8642,
      "proornu": 8643,
      "2km": 8644,
      "blus": 8645,
      "krug": 8646,
      "myen": 8647,
      "nyod": 8648,
      "rdan": 8649,
      "daksha": 8650,
      "mathu": 8651,
      "bsrad": 8652,
      "yuny": 8653,
      "phyu": 8654,
      "lash": 8655,
      "tuka": 8656,
      "moda": 8657,
      "dbhu": 8658,
      "shisha": 8659,
      "tshums": 8660,
      "rdzog": 8661,
      "spag": 8662,
      "padh": 8663,
      "brtsoms": 8664,
      "bkoda": 8665,
      "wadbhya": 8666,
      "muta": 8667,
      "phed": 8668,
      "autstsh": 8669,
      "dkyugs": 8670,
      "kartti": 8671,
      "yAng": 8672,
      "tsing": 8673,
      "skyog": 8674,
      "kand": 8675,
      "sbrug": 8676,
      "bandhi": 8677,
      "kriSh": 8678,
      "dzusha": 8679,
      "prikte": 8680,
      "kshra": 8681,
      "jams": 8682,
      "sbrad": 8683,
      "aeetsa": 8684,
      "dattha": 8685,
      "shUn": 8686,
      "516b": 8687,
      "tsuny": 8688,
      "pakt": 8689,
      "58": 8690,
      "63": 8691,
      "Shany": 8692,
      "gtsag": 8693,
      "kk": 8694,
      "ktva": 8695,
      "nma": 8696,
      "oga": 8697,
      "pris": 8698,
      "pror": 8699,
      "rdur": 8700,
      "tyan": 8701,
      "tstshar": 8702,
      "nik": 8703,
      "nishtsa": 8704,
      "makha": 8705,
      "matta": 8706,
      "bskyi": 8707,
      "bsnyo": 8708,
      "tala": 8709,
      "bardhi": 8710,
      "bargga": 8711,
      "ruka": 8712,
      "gardzi": 8713,
      "gsunga": 8714,
      "shib": 8715,
      "mdzas": 8716,
      "zada": 8717,
      "guN": 8718,
      "rkyag": 8719,
      "lagsa": 8720,
      "wana": 8721,
      "things": 8722,
      "snyomsa": 8723,
      "samA": 8724,
      "badhv": 8725,
      "pip": 8726,
      "aig": 8727,
      "thrig": 8728,
      "sbobs": 8729,
      "sngona": 8730,
      "pAR": 8731,
      "pAny": 8732,
      "krU": 8733,
      "shriM": 8734,
      "Thana": 8735,
      "dhem": 8736,
      "sangga": 8737,
      "dmul": 8738,
      "aoota": 8739,
      "hrIHdmar": 8740,
      "siddhimme": 8741,
      "zina": 8742,
      "kalpe": 8743,
      "510a": 8744,
      "520a": 8745,
      "520b": 8746,
      "esht": 8747,
      "hAHsarba": 8748,
      "dzugup": 8749,
      "u0f71": 8750,
      "bslaba": 8751,
      "91": 8752,
      "98": 8753,
      "aja": 8754,
      "dhanya": 8755,
      "jugs": 8756,
      "kyas": 8757,
      "pyu": 8758,
      "pring": 8759,
      "rngas": 8760,
      "ngga": 8761,
      "yadra": 8762,
      "dem": 8763,
      "bsna": 8764,
      "taka": 8765,
      "mitstsha": 8766,
      "tos": 8767,
      "gams": 8768,
      "gany": 8769,
      "dansha": 8770,
      "nyee": 8771,
      "satra": 8772,
      "rdzA": 8773,
      "tikka": 8774,
      "lamb": 8775,
      "shd": 8776,
      "aada": 8777,
      "mandha": 8778,
      "dzai": 8779,
      "dzat": 8780,
      "khub": 8781,
      "asth": 8782,
      "pusha": 8783,
      "skyabsa": 8784,
      "anma": 8785,
      "tsiSh": 8786,
      "urbam": 8787,
      "arth": 8788,
      "dzid": 8789,
      "sbyugs": 8790,
      "rngar": 8791,
      "bant": 8792,
      "dhee": 8793,
      "u0f85b": 8794,
      "hrIHha": 8795,
      "bhandzo": 8796,
      "krem": 8797,
      "proksha": 8798,
      "bashtsa": 8799,
      "phywa": 8800,
      "78": 8801,
      "dbyam": 8802,
      "hmryum": 8803,
      "ksa": 8804,
      "myes": 8805,
      "prin": 8806,
      "prung": 8807,
      "rnyag": 8808,
      "snyags": 8809,
      "uH": 8810,
      "baN": 8811,
      "bazhi": 8812,
      "naSh": 8813,
      "lap": 8814,
      "tadra": 8815,
      "hus": 8816,
      "rih": 8817,
      "skrigs": 8818,
      "cil": 8819,
      "buSh": 8820,
      "khrang": 8821,
      "mot": 8822,
      "danbhu": 8823,
      "tanti": 8824,
      "spran": 8825,
      "spAr": 8826,
      "khatv": 8827,
      "kashtsa": 8828,
      "bom": 8829,
      "sarge": 8830,
      "titstsha": 8831,
      "sngag": 8832,
      "gunda": 8833,
      "shkam": 8834,
      "shtim": 8835,
      "aaya": 8836,
      "sris": 8837,
      "mandu": 8838,
      "byee": 8839,
      "btsom": 8840,
      "shuk": 8841,
      "brit": 8842,
      "brish": 8843,
      "samb": 8844,
      "bltabs": 8845,
      "sarboo": 8846,
      "betti": 8847,
      "gtogsa": 8848,
      "hUnya": 8849,
      "dardu": 8850,
      "rAdz": 8851,
      "balcag": 8852,
      "thlim": 8853,
      "rakshantu": 8854,
      "swab": 8855,
      "tsuM": 8856,
      "lAk": 8857,
      "bhuny": 8858,
      "kshmryum": 8859,
      "nyAp": 8860,
      "aarba": 8861,
      "bIH": 8862,
      "shISha": 8863,
      "tunda": 8864,
      "tundi": 8865,
      "shrIH": 8866,
      "ghurnna": 8867,
      "kurbantu": 8868,
      "spyom": 8869,
      "bshub": 8870,
      "515b": 8871,
      "510b": 8872,
      "521a": 8873,
      "nishka": 8874,
      "dhvansu": 8875,
      "totka": 8876,
      "Atra": 8877,
      "Shang": 8878,
      "gtag": 8879,
      "prig": 8880,
      "pen": 8881,
      "rli": 8882,
      "rtt": 8883,
      "snong": 8884,
      "twad": 8885,
      "bakshi": 8886,
      "hikka": 8887,
      "rada": 8888,
      "rasna": 8889,
      "hun": 8890,
      "tom": 8891,
      "bzhib": 8892,
      "pasth": 8893,
      "dbrag": 8894,
      "mtshes": 8895,
      "tsasha": 8896,
      "bast": 8897,
      "rdzar": 8898,
      "lambi": 8899,
      "rtso": 8900,
      "drishtv": 8901,
      "manma": 8902,
      "shukra": 8903,
      "brittam": 8904,
      "sdongs": 8905,
      "sbyangsa": 8906,
      "tamba": 8907,
      "bhakshi": 8908,
      "piH": 8909,
      "kot": 8910,
      "drogs": 8911,
      "dhna": 8912,
      "wAr": 8913,
      "bkrar": 8914,
      "staH": 8915,
      "sron": 8916,
      "stiH": 8917,
      "stims": 8918,
      "rtsvas": 8919,
      "stya": 8920,
      "shrinya": 8921,
      "dIH": 8922,
      "aindh": 8923,
      "lind": 8924,
      "507b": 8925,
      "508a": 8926,
      "bldab": 8927,
      "sarbiH": 8928,
      "/).../": 8929,
      "phuHphuH": 8930,
      "radzdzu": 8931,
      "ldob": 8932,
      "brngod": 8933,
      ")/": 8934,
      "IH": 8935,
      "blcag": 8936,
      "gcar": 8937,
      "ktri": 8938,
      "lwi": 8939,
      "srwa": 8940,
      "uT": 8941,
      "wangs": 8942,
      "yaska": 8943,
      "parta": 8944,
      "bshud": 8945,
      "taT": 8946,
      "riksha": 8947,
      "ronya": 8948,
      "rgon": 8949,
      "khrim": 8950,
      "dbangs": 8951,
      "rdzod": 8952,
      "tisma": 8953,
      "tikta": 8954,
      "tshuH": 8955,
      "aartstsa": 8956,
      "srida": 8957,
      "bkogs": 8958,
      "wags": 8959,
      "phon": 8960,
      "bina": 8961,
      "bista": 8962,
      "gdabs": 8963,
      "gcoda": 8964,
      "sik": 8965,
      "bramhi": 8966,
      "karsh": 8967,
      "bhakti": 8968,
      "narma": 8969,
      "lter": 8970,
      "banra": 8971,
      "shwas": 8972,
      "stub": 8973,
      "ShiSh": 8974,
      "tasmee": 8975,
      "shyata": 8976,
      "AHdmar": 8977,
      "ghve": 8978,
      "nirba": 8979,
      "509a": 8980,
      "508b": 8981,
      "ldibs": 8982,
      "yIH": 8983,
      "kvina": 8984,
      "YuH": 8985,
      "krinta": 8986,
      "tstshanda": 8987,
      "aungga": 8988,
      "1km": 8989,
      "bgreng": 8990,
      "iksh": 8991,
      "irnna": 8992,
      "ldogs": 8993,
      "mdu": 8994,
      "myul": 8995,
      "rlam": 8996,
      "rlug": 8997,
      "niR": 8998,
      "maung": 8999,
      "bsno": 9000,
      "bstung": 9001,
      "phyol": 9002,
      "bzhiin": 9003,
      "ranggi": 9004,
      "brer": 9005,
      "luny": 9006,
      "shish": 9007,
      "rega": 9008,
      "bastra": 9009,
      "mchoda": 9010,
      "bskyo": 9011,
      "yantsa": 9012,
      "aasa": 9013,
      "myaksam": 9014,
      "langkar": 9015,
      "khyigs": 9016,
      "rkyend": 9017,
      "hAka": 9018,
      "gcor": 9019,
      "gcud": 9020,
      "kosko": 9021,
      "aisa": 9022,
      "kandi": 9023,
      "pantha": 9024,
      "bAg": 9025,
      "NiSh": 9026,
      "gAn": 9027,
      "shanna": 9028,
      "mrid": 9029,
      "kshipta": 9030,
      "bsegs": 9031,
      "bkyer": 9032,
      "siny": 9033,
      "aihls": 9034,
      "truM": 9035,
      "digdh": 9036,
      "ghante": 9037,
      "matshamas": 9038,
      "kvo": 9039,
      "59": 9040,
      "DoM": 9041,
      "ati": 9042,
      "akshu": 9043,
      "bpa": 9044,
      "com": 9045,
      "rd": 9046,
      "rban": 9047,
      "slus": 9048,
      "snub": 9049,
      "tthi": 9050,
      "paSh": 9051,
      "bap": 9052,
      "narta": 9053,
      "parshi": 9054,
      "tswa": 9055,
      "bsra": 9056,
      "yukta": 9057,
      "thaga": 9058,
      "bartma": 9059,
      "rgang": 9060,
      "gaur": 9061,
      "kap": 9062,
      "adre": 9063,
      "tsakka": 9064,
      "tsartstsa": 9065,
      "zaga": 9066,
      "lngan": 9067,
      "rtsags": 9068,
      "aara": 9069,
      "btsogs": 9070,
      "bidktha": 9071,
      "sampa": 9072,
      "spying": 9073,
      "asmi": 9074,
      "putstsha": 9075,
      "sita": 9076,
      "bskar": 9077,
      "bhyu": 9078,
      "pishta": 9079,
      "gambh": 9080,
      "..(": 9081,
      "rAT": 9082,
      "kyar": 9083,
      "sbros": 9084,
      "brdzod": 9085,
      "raktas": 9086,
      "swap": 9087,
      "shrU": 9088,
      "yAMH": 9089,
      "harsha": 9090,
      "shalma": 9091,
      "mrda": 9092,
      "twama": 9093,
      "hrIHhUM": 9094,
      "aahls": 9095,
      "kalp": 9096,
      "509b": 9097,
      "smim": 9098,
      "514b": 9099,
      "515a": 9100,
      "kaddha": 9101,
      "karmm": 9102,
      "ऽऽऽ": 9103,
      "bhringgi": 9104,
      "bsgrungs": 9105,
      "besht": 9106,
      "lubdha": 9107,
      "shyanda": 9108,
      "1bcas": 9109,
      "Ik": 9110,
      "achi": 9111,
      "dn": 9112,
      "hha": 9113,
      "iNa": 9114,
      "nes": 9115,
      "ob": 9116,
      "rdegs": 9117,
      "smed": 9118,
      "sgrel": 9119,
      "baga": 9120,
      "hama": 9121,
      "tstsi": 9122,
      "byakta": 9123,
      "tastu": 9124,
      "dora": 9125,
      "poSh": 9126,
      "gyim": 9127,
      "dipra": 9128,
      "tushtu": 9129,
      "sek": 9130,
      "longa": 9131,
      "chuba": 9132,
      "grug": 9133,
      "sags": 9134,
      "aasmin": 9135,
      "bsngam": 9136,
      "manthi": 9137,
      "gtsig": 9138,
      "skaM": 9139,
      "dzakshi": 9140,
      "thir": 9141,
      "spron": 9142,
      "hAng": 9143,
      "sgrod": 9144,
      "sings": 9145,
      "karme": 9146,
      "anra": 9147,
      "dror": 9148,
      "rlod": 9149,
      "Shai": 9150,
      "rAr": 9151,
      "rmal": 9152,
      "nynita": 9153,
      "trid": 9154,
      "band": 9155,
      "rIta": 9156,
      "ratta": 9157,
      "gzabs": 9158,
      "atpa": 9159,
      "atpra": 9160,
      "ranra": 9161,
      "aambha": 9162,
      "khyamsa": 9163,
      "aot": 9164,
      "shudhe": 9165,
      "dzAg": 9166,
      "tvar": 9167,
      "pushkar": 9168,
      "prAn": 9169,
      "tsintya": 9170,
      "linydza": 9171,
      "bshug": 9172,
      "bshubs": 9173,
      "yaiH": 9174,
      "sapt": 9175,
      "bstus": 9176,
      "bighnan": 9177,
      "bolla": 9178,
      "bashti": 9179,
      "brinda": 9180,
      "svee": 9181,
      "beshta": 9182,
      "bUrba": 9183,
      "540a": 9184,
      "Tas": 9185,
      "anan": 9186,
      "hmo": 9187,
      "mchos": 9188,
      "myig": 9189,
      "rnges": 9190,
      "rman": 9191,
      "sdam": 9192,
      "snos": 9193,
      "ttu": 9194,
      "upa": 9195,
      "baid": 9196,
      "nakta": 9197,
      "laSha": 9198,
      "yataH": 9199,
      "tsts": 9200,
      "hoM": 9201,
      "nii": 9202,
      "mado": 9203,
      "bsgron": 9204,
      "poH": 9205,
      "hut": 9206,
      "rgA": 9207,
      "suma": 9208,
      "ltara": 9209,
      "gzor": 9210,
      "buN": 9211,
      "khkh": 9212,
      "thoH": 9213,
      "brdubs": 9214,
      "kaka": 9215,
      "nyatha": 9216,
      "tsarkri": 9217,
      "gzus": 9218,
      "shke": 9219,
      "yansa": 9220,
      "onda": 9221,
      "dzana": 9222,
      "astha": 9223,
      "shoondi": 9224,
      "aushna": 9225,
      "pratstshi": 9226,
      "dresa": 9227,
      "ansoo": 9228,
      "tsil": 9229,
      "tsim": 9230,
      "aii": 9231,
      "aikshu": 9232,
      "Shash": 9233,
      "shAl": 9234,
      "rngab": 9235,
      "panta": 9236,
      "krishn": 9237,
      "autt": 9238,
      "tsushma": 9239,
      "tsitte": 9240,
      "dzahl": 9241,
      "dzaHswA": 9242,
      "hrIHb": 9243,
      "513a": 9244,
      "512a": 9245,
      "512b": 9246,
      "513b": 9247,
      "514a": 9248,
      "511b": 9249,
      "511a": 9250,
      "aHaH": 9251,
      "521b": 9252,
      "bhind": 9253,
      "dzve": 9254,
      "u0f72": 9255,
      "bhransu": 9256,
      "WI": 9257,
      "dngan": 9258,
      "gdegs": 9259,
      "hvi": 9260,
      "pel": 9261,
      "sdags": 9262,
      "tto": 9263,
      "two": 9264,
      "page": 9265,
      "bakta": 9266,
      "nah": 9267,
      "nap": 9268,
      "hadz": 9269,
      "tsub": 9270,
      "niksha": 9271,
      "gyura": 9272,
      "songa": 9273,
      "gyil": 9274,
      "skangs": 9275,
      "sudz": 9276,
      "khangs": 9277,
      "rji": 9278,
      "motta": 9279,
      "sprid": 9280,
      "shapta": 9281,
      "bskya": 9282,
      "shles": 9283,
      "wama": 9284,
      "bidz": 9285,
      "khanga": 9286,
      "shardhi": 9287,
      "nant": 9288,
      "auda": 9289,
      "pib": 9290,
      "tsis": 9291,
      "Nata": 9292,
      "ganta": 9293,
      "bAdz": 9294,
      "swan": 9295,
      "autka": 9296,
      "rantu": 9297,
      "larka": 9298,
      "bhudktha": 9299,
      "kshmam": 9300,
      "gdoda": 9301,
      "dvam": 9302,
      "jags": 9303,
      "u0fb": 9304,
      "pushp": 9305,
      "TuM": 9306,
      "Tul": 9307,
      "YAta": 9308,
      "shreSh": 9309,
      "brAk": 9310,
      "rteg": 9311,
      "ghen": 9312,
      "aanydzi": 9313,
      "nirgatstsha": 9314,
      "atshala": 9315,
      "]//": 9316,
      "ardzdza": 9317,
      "bdha": 9318,
      "dbad": 9319,
      "gcing": 9320,
      "gbhya": 9321,
      "gdham": 9322,
      "kma": 9323,
      "lcig": 9324,
      "ndo": 9325,
      "nyAM": 9326,
      "rming": 9327,
      "syi": 9328,
      "voo": 9329,
      "namaHsarba": 9330,
      "yapa": 9331,
      "made": 9332,
      "maska": 9333,
      "bsgrogs": 9334,
      "tara": 9335,
      "hung": 9336,
      "diksha": 9337,
      "dzangga": 9338,
      "stee": 9339,
      "ambu": 9340,
      "kukshi": 9341,
      "kakka": 9342,
      "saya": 9343,
      "tshiSh": 9344,
      "tih": 9345,
      "skungs": 9346,
      "aasta": 9347,
      "yastu": 9348,
      "yasmin": 9349,
      "bishya": 9350,
      "bitt": 9351,
      "shudha": 9352,
      "sishta": 9353,
      "lcebs": 9354,
      "yAma": 9355,
      "bhakta": 9356,
      "Shat": 9357,
      "stanbhu": 9358,
      "thv": 9359,
      "bsnamsa": 9360,
      "gandho": 9361,
      "rakt": 9362,
      "sadya": 9363,
      "shwata": 9364,
      "kshno": 9365,
      "kIR": 9366,
      "zums": 9367,
      "sbegs": 9368,
      "murba": 9369,
      "agga": 9370,
      "hoHbadzra": 9371,
      "rdel": 9372,
      "bsoda": 9373,
      "dzanra": 9374,
      "yIta": 9375,
      "aund": 9376,
      "aunm": 9377,
      "urnno": 9378,
      "shtom": 9379,
      "kurbb": 9380,
      "bzunga": 9381,
      "+'+": 9382,
      "kshanta": 9383,
      "rundhanta": 9384,
      "(/'": 9385,
      "4dang": 9386,
      "Any": 9387,
      "bbi": 9388,
      "byungs": 9389,
      "dgrongs": 9390,
      "hrAM": 9391,
      "ltu": 9392,
      "mchams": 9393,
      "pte": 9394,
      "rlong": 9395,
      "ssu": 9396,
      "bama": 9397,
      "badha": 9398,
      "harga": 9399,
      "daSh": 9400,
      "duga": 9401,
      "makshi": 9402,
      "yeH": 9403,
      "yems": 9404,
      "bsong": 9405,
      "yukte": 9406,
      "taska": 9407,
      "phyongs": 9408,
      "doga": 9409,
      "caga": 9410,
      "disht": 9411,
      "tushta": 9412,
      "stem": 9413,
      "brnog": 9414,
      "tiR": 9415,
      "shatha": 9416,
      "zasa": 9417,
      "mardha": 9418,
      "shUr": 9419,
      "chid": 9420,
      "aadza": 9421,
      "legsa": 9422,
      "dzadz": 9423,
      "dzany": 9424,
      "mush": 9425,
      "tshri": 9426,
      "zhab": 9427,
      "beta": 9428,
      "nand": 9429,
      "brungs": 9430,
      "jomas": 9431,
      "phroM": 9432,
      "andhi": 9433,
      "bhle": 9434,
      "pitstsha": 9435,
      "darbi": 9436,
      "mugbhya": 9437,
      "narte": 9438,
      "bAna": 9439,
      "tshanda": 9440,
      "shwar": 9441,
      "glai": 9442,
      "santo": 9443,
      "DiN": 9444,
      "AHhu": 9445,
      "pushpi": 9446,
      "shangka": 9447,
      "treeng": 9448,
      "pUng": 9449,
      "tunna": 9450,
      "hrIHa": 9451,
      "hoHyig": 9452,
      "mIH": 9453,
      "duHkhA": 9454,
      "dwAn": 9455,
      "pashtsa": 9456,
      "krunytsoo": 9457,
      "nvantoo": 9458,
      "bhanydma": 9459,
      "dzrIM": 9460,
      "tthddh": 9461,
      ")...": 9462,
      "1kama": 9463,
      "56": 9464,
      "64": 9465,
      "93": 9466,
      "YAH": 9467,
      "asha": 9468,
      "gbhi": 9469,
      "klin": 9470,
      "mlu": 9471,
      "sdad": 9472,
      "ngI": 9473,
      "yada": 9474,
      "yate": 9475,
      "daksh": 9476,
      "msa": 9477,
      "parnn": 9478,
      "maho": 9479,
      "bsug": 9480,
      "that": 9481,
      "ruda": 9482,
      "rgri": 9483,
      "dzong": 9484,
      "khr": 9485,
      "cheda": 9486,
      "brnyar": 9487,
      "kashu": 9488,
      "bobs": 9489,
      "adra": 9490,
      "sats": 9491,
      "rdzang": 9492,
      "tita": 9493,
      "tshungs": 9494,
      "shara": 9495,
      "rtson": 9496,
      "shsh": 9497,
      "sny": 9498,
      "mantoo": 9499,
      "muna": 9500,
      "garbh": 9501,
      "tangka": 9502,
      "spob": 9503,
      "hAta": 9504,
      "shon": 9505,
      "autstshu": 9506,
      "madhu": 9507,
      "aitstsha": 9508,
      "nAt": 9509,
      "krish": 9510,
      "tvoo": 9511,
      "kroshta": 9512,
      "bhisa": 9513,
      "svabh": 9514,
      "shvar": 9515,
      "dAN": 9516,
      "tigno": 9517,
      "randza": 9518,
      "saMk": 9519,
      "satta": 9520,
      "sty": 9521,
      "bzoda": 9522,
      "Shuka": 9523,
      "kshl": 9524,
      "mrisha": 9525,
      "aarri": 9526,
      "aartti": 9527,
      "gsera": 9528,
      "nirbA": 9529,
      "shIH": 9530,
      "prAk": 9531,
      "hastA": 9532,
      "tsinti": 9533,
      "ihbi": 9534,
      "dzanm": 9535,
      "aangku": 9536,
      "519a": 9537,
      "519b": 9538,
      "tsakrA": 9539,
      "anytsir": 9540,
      "kvip": 9541,
      "btams": 9542,
      "nishtsi": 9543,
      "bacada": 9544,
      "daphphu": 9545,
      "0ra": 9546,
      "5km": 9547,
      "ani": 9548,
      "dyud": 9549,
      "jang": 9550,
      "jong": 9551,
      "kyor": 9552,
      "llu": 9553,
      "mli": 9554,
      "myir": 9555,
      "rdam": 9556,
      "batstshi": 9557,
      "ladz": 9558,
      "tson": 9559,
      "duM": 9560,
      "hitA": 9561,
      "matstsha": 9562,
      "doSh": 9563,
      "dogas": 9564,
      "hunya": 9565,
      "risa": 9566,
      "sobs": 9567,
      "barha": 9568,
      "bzhira": 9569,
      "surya": 9570,
      "rjai": 9571,
      "goSh": 9572,
      "jir": 9573,
      "tandu": 9574,
      "brlas": 9575,
      "brdza": 9576,
      "brlangs": 9577,
      "brtab": 9578,
      "kutti": 9579,
      "grola": 9580,
      "grogas": 9581,
      "basm": 9582,
      "aast": 9583,
      "rksha": 9584,
      "bkras": 9585,
      "skau": 9586,
      "gnyos": 9587,
      "musta": 9588,
      "sarbee": 9589,
      "puSha": 9590,
      "sheng": 9591,
      "karman": 9592,
      "rdzub": 9593,
      "lhongs": 9594,
      "rmongsa": 9595,
      "bcoms": 9596,
      "dziH": 9597,
      "sbogs": 9598,
      "brdzang": 9599,
      "gcigs": 9600,
      "krai": 9601,
      "sAts": 9602,
      "sArba": 9603,
      "pAd": 9604,
      "bhing": 9605,
      "tsurna": 9606,
      "dAs": 9607,
      "aamla": 9608,
      "sandu": 9609,
      "santu": 9610,
      "gdona": 9611,
      "AHswA": 9612,
      "gauH": 9613,
      "kaMH": 9614,
      "limba": 9615,
      "binydza": 9616,
      "zings": 9617,
      "bhrid": 9618,
      "518b": 9619,
      "phibs": 9620,
      "sarbiM": 9621,
      "paktha": 9622,
      "smAn": 9623,
      "sindhur": 9624,
      "shakno": 9625,
      "snig": 9626,
      "bhurbhu": 9627,
      "gzhags": 9628,
      "tapte": 9629,
      "shanytsi": 9630,
      "parshadba": 9631,
      "72": 9632,
      "glung": 9633,
      "gnub": 9634,
      "ldebs": 9635,
      "nsa": 9636,
      "nen": 9637,
      "onga": 9638,
      "rt": 9639,
      "sbi": 9640,
      "sbus": 9641,
      "unga": 9642,
      "yiin": 9643,
      "laksh": 9644,
      "matsho": 9645,
      "bsnon": 9646,
      "pon": 9647,
      "ridkte": 9648,
      "barlinga": 9649,
      "lasha": 9650,
      "dirga": 9651,
      "dzram": 9652,
      "dzdzha": 9653,
      "brdo": 9654,
      "kuH": 9655,
      "lunga": 9656,
      "nyata": 9657,
      "mtshangs": 9658,
      "tinga": 9659,
      "mthob": 9660,
      "smya": 9661,
      "smres": 9662,
      "shaN": 9663,
      "shah": 9664,
      "shtra": 9665,
      "dadma": 9666,
      "liSh": 9667,
      "bskungs": 9668,
      "biSha": 9669,
      "shuSh": 9670,
      "samr": 9671,
      "rnel": 9672,
      "begs": 9673,
      "nante": 9674,
      "bkums": 9675,
      "khandi": 9676,
      "bhma": 9677,
      "bhaksh": 9678,
      "kotta": 9679,
      "svo": 9680,
      "kirti": 9681,
      "narda": 9682,
      "gomsa": 9683,
      "balli": 9684,
      "stau": 9685,
      "keg": 9686,
      "panthi": 9687,
      "bante": 9688,
      "?]/": 9689,
      "aoshtha": 9690,
      "gyaM": 9691,
      "TiD": 9692,
      "aarth": 9693,
      "tyaksha": 9694,
      "aindu": 9695,
      "[)]@#/": 9696,
      "bzhun": 9697,
      "pUrbAH": 9698,
      "battha": 9699,
      "pIH": 9700,
      "pradznye": 9701,
      "518a": 9702,
      "bsgyangs": 9703,
      "phir": 9704,
      "522a": 9705,
      "528a": 9706,
      ":/...('": 9707,
      "smAM": 9708,
      "ghandha": 9709,
      "shransu": 9710,
      "damshtra": 9711,
      "shrAng": 9712,
      "dkyiil": 9713,
      "shambhala": 9714,
      "bsnyigs": 9715,
      "1la": 9716,
      "3km": 9717,
      "84": 9718,
      "Al": 9719,
      "abru": 9720,
      "dmang": 9721,
      "dban": 9722,
      "grab": 9723,
      "iD": 9724,
      "myung": 9725,
      "mraM": 9726,
      "ned": 9727,
      "oSha": 9728,
      "prab": 9729,
      "rbhu": 9730,
      "rbba": 9731,
      "sdzi": 9732,
      "lakshma": 9733,
      "yashta": 9734,
      "gsam": 9735,
      "hod": 9736,
      "byanydza": 9737,
      "bsing": 9738,
      "bshur": 9739,
      "takka": 9740,
      "ridktha": 9741,
      "thala": 9742,
      "barte": 9743,
      "skrad": 9744,
      "bzhing": 9745,
      "sush": 9746,
      "ngams": 9747,
      "khatstshe": 9748,
      "shishtha": 9749,
      "sakta": 9750,
      "shashthi": 9751,
      "rtsogs": 9752,
      "snau": 9753,
      "mthung": 9754,
      "aatra": 9755,
      "aabhi": 9756,
      "rki": 9757,
      "khrogs": 9758,
      "biN": 9759,
      "jigsa": 9760,
      "shuN": 9761,
      "tshaM": 9762,
      "tanga": 9763,
      "lhuT": 9764,
      "auk": 9765,
      "zeg": 9766,
      "kartu": 9767,
      "yASh": 9768,
      "dgyer": 9769,
      "grem": 9770,
      "drob": 9771,
      "aishnu": 9772,
      "kimra": 9773,
      "urboo": 9774,
      "dhyu": 9775,
      "nartta": 9776,
      "tAro": 9777,
      "rmag": 9778,
      "sbA": 9779,
      "kAl": 9780,
      "Tatsa": 9781,
      "shAka": 9782,
      "btum": 9783,
      "lcis": 9784,
      "sAtra": 9785,
      "svapna": 9786,
      "satwAM": 9787,
      "priksha": 9788,
      "tIH": 9789,
      "dzahb": 9790,
      "twata": 9791,
      "trer": 9792,
      "dhvoo": 9793,
      "hiHzhes": 9794,
      "ghurna": 9795,
      "kumbh": 9796,
      "manydzi": 9797,
      "gandharba": 9798,
      "sgrengs": 9799,
      "hwaH": 9800,
      "shuddhonyham": 9801,
      "syante": 9802,
      "shambhir": 9803,
      "hvenya": 9804,
      "kushmanda": 9805,
      "5dang": 9806,
      "99": 9807,
      "MH": 9808,
      "asmin": 9809,
      "aen": 9810,
      "bna": 9811,
      "kes": 9812,
      "klang": 9813,
      "lko": 9814,
      "rh": 9815,
      "rnye": 9816,
      "rlags": 9817,
      "ss": 9818,
      "srangs": 9819,
      "srus": 9820,
      "swam": 9821,
      "treng": 9822,
      "pakta": 9823,
      "baba": 9824,
      "nadmi": 9825,
      "yakra": 9826,
      "hara": 9827,
      "haste": 9828,
      "bslong": 9829,
      "phrel": 9830,
      "mits": 9831,
      "thasa": 9832,
      "bzhibs": 9833,
      "gil": 9834,
      "dzlum": 9835,
      "kashi": 9836,
      "lut": 9837,
      "bzh": 9838,
      "reH": 9839,
      "rdzir": 9840,
      "mchon": 9841,
[...]
